10111101011000000100010111110011
10111110000001011100111011000000
10111101100000000011001110110001
00111101001101101000001101111001
00111101101101101101101000101110
10111110011110110101101001101101
10111110100001101001000110001000
00111101010011101100001110101101
10111110000100000010010000001000
10111101010111101101100110111010
10111101110110111101101111110101
00111101111101001010010010110101
00111110000000100011000010110001
00111101000100111000101100101011
00111101001101001000100101100100
00111110011100011101111001010110
00111100001011010101101100111111
00111110000011011111101010111010
00111101101100010101001101010101
00111110010010001011001000011000
10111110000010001001111011011111
10111110001011000111101001000100
10111101001101101100101011010010
00111101001001000001011001111111
00111100101111010110011111000001
00111110000111110111010111010011
10111100110101010000000111100100
10111101111111000110100100011110
00111011111010010001100100111001
00111101110010101101000111111110
10111101111100100100011111110011
00111011001100000110110101011101
10111110000110000100011101111001
10111101001110011001001011110110
10111101101111011100111100110010
10111101111101011101111100001010
10111101010111101101001000111110
10111101001011011000010101011001
10111100010001011010011110010010
00111101010001100011100100110110
10111110001110111010010100110110
10111100111110111010001101101110
10111101111111101011010101101111
00111110000001001110100010110110
00111110001110110011111111011111
00111110000011010111000100101011
10111110011100010000111110000001
10111110000100111110011000111111
00111101010100000110111100100011
10111110010110111100100111011111
10111110000101101011001000101101
10111101111111110000010000111111
10111101000011110011011100000010
10111110000011010110101000111101
10111101110011110101101111000011
00111011001011000010001001111100
10111101010010010110111110011111
10111101110110011010101111111010
10111011101011000100100011111010
00111100101010101110000110000001
10111101110110000110001111100001
10111100101101010000001110010010
00111110000110110010100100010000
10111101110111110110101000111010
10111101000111101000111101101100
00111011000101001011001100011110
10111110001101111111001110000100
10111100011011000000001011100000
10111101000010110110011111011010
00111101100011101101010010000101
00111101000011010111101010100011
10111110011001100100000010110101
10111100101000010100000010101011
10111110001011010110111001101001
10111110001000111000100011111001
00111101111101010010111110111100
00111101011000010010001110111100
10111110001110111000010011011010
10111110011111110010110001011010
10111101001000101111101011100000
10111110010110001100011010010100
00111101101001011101101101111001
10111110011100010111101001111100
10111101100101100101001001100111
10111100011111100010111010111111
10111101100011101010000110011000
10111110011010010100001011111011
00111101000001001101101100110011
10111100111100111100101010001111
10111101110101001001110000010000
10111110000101100101101100001101
10111101101110010001101000001000
10111110000010101011000110101000
00111101101100011010111010000110
00111101000101101100001100001010
00111101101110101100101000100101
10111110010000010000001001001110
10111101011110101101000100101101
10111101111000010011011101010001
10111101101111001001100011010100
10111110000001001010111001011011
10111101110000111100111011101101
00111101110010000101010100000100
10111110011010110101110011111000
10111101001000010010001010111010
10111011101110100101001111110101
00111110000001101010000111110000
00111101101000000010101000100111
00111101111010110100011001101010
10111110010100100111100110011111
00111100111010101110001000110111
00111101101010000101011001110111
10111101010110011110000010000100
00111110000010010000000000011011
10111110010000001101100101010001
00111110000001111110011101100111
00111100111101100011111011111001
10111101100101000000010100101001
00111110010001110110000110011010
00111101011101011000010011101100
10111110001001000101010000111011
10111110100001101011001010011001
00111011000101101011101100100000
10111110001101001100110011101010
10111101110000000111100000111100
00111101011110000000011110100111
10111110000010101111001010011111
00111011001100001111111011001111
