00111110000101111011110110000111
00111101011110111001110010000101
10111110011001110101111000100110
00111100001101001001100000111100
10111101100000010011111111000100
10111010100011110001100100100101
10111110011110100010001000101001
10111101000110111011100001011011
00111101001000011100110111111000
00111100101111010111011011111010
00111101011111111100100110001000
10111011111100100111110010101101
10111100101100100011010100111100
10111110001101010100001111010110
10111101011011000100001110100101
00111101100001100100011100111011
10111101100000010001001111011100
10111100010101100000000011111110
10111101001100000001100111001111
10111101101000100010010111110111
00111101101010111011000001110001
10111110100000100011001111100101
00111101111100110011110100100111
10111110010111111100010000100101
10111101011000011010100011110111
00111100110101110010110001111111
10111101100000011011000011111110
00111110001111000010011011011100
10111101101110011101101101111101
10111100011100110110111010011111
10111101010101000110011100101010
10111100111111101100000001110100
00111101110001011010111011010011
00111110000101110001101100101110
10111101010011011111110101001100
10111110000000100011000001111000
10111101000001100011101001100011
10111101111010111100010010001110
10111101010011001101100101011111
10111110011111101101010110111000
10111101101001100111001111111110
10111101000010010010000111011000
10111101001001110110111011000000
10111101110000001001111011000000
10111101111000110111000010000010
00111101001011101001011101101100
10111101111010101100011000001000
10111110010011101000011011100110
00111100110011110111000111010111
00111110001001011100010111100010
10111101001111101011001001111100
00111011111111101011110111011011
10111101110100101001001101110110
10111101101101111000110101001011
00111110010000111110010110100000
00111100100100000001001001101001
10111100100110111010101001001010
10111101110000000010101010010111
10111110001100011011011100011111
00111101110110011010001110001010
10111101010001100000010000110011
00111110001000100011100010110011
00111101011010100111010000101110
10111110100010001111100110011110
10111101110111000011011011110001
10111101110110100001111100001001
00111011111110111101100011101000
00111101010000001100101010001100
00111101100010011001111011011111
10111101110001110101010100001011
00111101001000101010011010110000
10111101010000010010100011010010
00111101111010010101111101000111
10111110001110111111011000111100
00111110000100000000100011101101
10111101101100111101110110100110
10111110000100100101010011001010
10111110011100101111010010001100
00111101101110111101111100011010
00111101101110000001010010100000
10111101010111100111110101110110
10111101100100110000000011101001
10111110000110100011111110111000
10111110100000100111110011000010
00111101111111111111011100100110
10111110011111110111000010110100
10111110000110100010010010001110
10111110000000001010110100111011
00111101111000001001111001100001
00111110010110100111000001001111
10111100101011110011011000100001
10111110000000101001100110010001
10111100010000110010001101100001
10111110000101001001011101110000
10111110001011101001001100010111
10111100110001100010011111000110
10111101000110001000011101001010
10111110001001100000000001001010
10111100101101000001111010011110
10111110001101100111100000111101
00111101101011110010101100010001
00111100010000100010000101101110
00111110000011101010100110111000
10111110100011111001011100011101
00111011100011011100001100101011
00111110001001011001100101000010
00111101110100101000001011110110
10111110001010101101011101011000
00111011101101111110101111000010
00111101101001011011111010000100
00111100000101111110000111111111
00111101011111001000111010000000
10111110001011001010111100010001
10111110000011001111111101101111
00111101100001101110011001100011
10111110000011010011100000111000
10111101101000001110011010111001
10111100101101100000110011011001
10111110000011011101101010001011
10111101110010010110111010101000
10111101101010100010101010111100
10111010101001101000010000100100
00111101001101010011110100101101
10111110001101111001010011011101
10111101001001110010101101011010
10111101100101111111101000101100
10111110100010100000100101000101
10111101111011000111000010011010
