10111110100010010001100011001100
10111110000000011100000101001111
10111110010010101001101010011000
10111101100001010100101011000010
10111101100100010111100000001001
10111101101110100111011101001100
00111101010101110101111110101111
00111100010001000111011111111110
10111100110000111010110001101000
10111101100111000100111010010110
10111110001100000110101110100110
10111110000110000110011111101111
10111110010001000110100100000000
10111101001000111110111100111001
00111101011101100110010100100110
10111110011010100101111010011011
10111100101011111011101011000110
10111100111001100100100001001111
00111101000011101111000110101101
00111101110001011101101000101011
10111101111111011101011011001001
10111101110110110101010111010000
00111110001011001100100101110011
10111110011111101010010101111001
00111110001001100000111111111000
10111100110110011001000000000011
10111101100010111011100000100111
00111101000011001101010111111101
10111110000111101010010101001110
10111101100011110011010100100001
10111101011001100110100011011001
10111101010010100011010011101110
10111110010101011100100000100011
00111101100000100011000100000110
10111100001011001000110110111111
10111101100000100110111011101011
00111011100010000000000100001101
10111101000011110000101111101010
10111011110111111010001110110010
00111101110011111101111011001100
00111100101110111000001111100110
00111101100001010110000011010001
10111110011111101001101001001001
00111101101101001011110011101111
10111101111100110111000010101101
10111110001000111001110001010001
10111101100101010000011011110100
00111101101001000100000010001000
00111101100000000001010010101001
10111011011001000100011101101100
10111100011011000011100111011000
00111100001101111001110000110110
10111101111100011110000100001101
10111110000001101100011011100110
00111100111111111011111110111101
00111101111110110001011111000010
10111101111101101110001000100010
10111110011000110001100001010100
10111110000110101100101110110100
10111101011011000100100110100101
00111110000011011000111000111101
10111110001100100101011111011000
10111101101001111101010100100111
00111100010010101001000100000010
10111101110111011000011110010000
10111110011011111101010101000000
00111101001110100111001100111111
00111101011010010100101101101010
10111110101010100010111000001111
10111011000011100011000000011110
00111100101001011010111101010100
10111100110010000100011010100111
10111110001001111010110100011000
10111110001011110010100111111010
10111101010110010001000111010001
10111101101010111110111000001100
10111101001111100111010111111010
00111110000001000010011001101010
00111101001110110110111100111001
10111101111001100110100001010000
10111101110000001100111000001100
00111110000100101111100000111001
00111101011111000011100110101000
10111110000011001101100101000000
10111101010111000101101101001111
10111110000101000010001011000101
00111100110001011010111111111101
10111110000111010111011010110010
10111101010110110100110010111001
10111101111100111111011010111101
10111011100000101010011111000100
10111011011101000100010000110011
10111101011110001100000010111101
10111110011000001101001001111101
00111101101001001111111011100000
10111101101101100011110110111111
10111101101010111111101111001101
10111101001001000110111000001101
10111100101010010010101001000010
00111101100010010110011000110100
10111101010010001010111011011100
00111100001101111100110110001100
00111101010111111111101000011110
00111110000101000110111000100001
00111100010001010110011111001100
00111011101010100100110110111010
10111110001101100111010101001110
10111110000101111001100100000100
00111101111001111011110110000110
10111110000111001100110000111010
10111110001111011000001110001111
10111110010001010100100001111001
00111110000000101100011010001010
00111101100101111111010111100111
00111101010010110011100010010010
00111100100100100101100000110010
10111110000110100001001011000010
00111100110010001110110010110111
10111110001101100101001000101000
10111110010001010011101001011001
10111101101100101111100001111001
00111100010110000100010100001101
00111011000100000001000110100100
00111101100110011111110000100001
00111101011111000001110001111110
00111100011000100010011010100000
10111110100101100111000001101110
00111101100010011100110110100001
