00111011100011110110001111100010
10111110001000100101100001000001
00111101110001011011100111100110
00111101101001000111101011110111
10111100111011100000111111100100
10111101111111010101000100100111
00111110001000001110101111100010
10111100111001111101111100100111
10111101011000010101001100000000
10111100111100010100001111011111
10111101001001011101001000010001
10111100100000110101101001101110
10111101111000100000000110111110
00111010000110100000000111111100
10111101101100010111000000101001
00111101010000000000000111011110
00111101000110000010011101000010
00111011111000010101010111001011
00111101110011011110110100001000
00111101101010001010101110100101
10111011001001111100110101000001
10111100110111011010000100101001
10111110010000001001010010011100
00111101100110100100000010011110
00111101011011101010111001111011
10111110001111101101001111011010
00111110000100100110101011111010
10111101011101101111110000001101
10111101010110101011000001000011
10111110000100011010010000001000
00111101110010011110000000110111
10111101000100110100110100110110
10111011100001111101001010010000
00111100000011111011001001010011
10111101100010011001111010101110
10111101110010011001110100100100
10111101100001110000000110011101
10111110001101111011011010001101
10111110010010011100100010010101
00111101110000001010011010111001
10111100011000100001000100010001
10111101010100110011110101011000
10111100101100110001011110100101
10111101001011100100111101010101
10111110000010010101100010011110
10111100011011001101101011011001
10111110001001100001110110101011
00111101001011000001001111110101
00111101001011011010010011001100
00111101100000000011111111001100
10111101101000101110110000001100
10111110000110101101001111011110
10111101111110010110101101101110
00111100011100011101000100011011
00111110011110010011111101100011
10111100000000110111001111111000
00111101000111011111100101000111
10111110010100000111010001011110
10111110000100110010100010110000
00111011100000000010000111100100
00111110000010101000011111110010
10111101101100100110010010001101
00111100111011001010011101110011
10111100100111110100000001011010
00111110000010111001101111111110
10111110001100111001011100110011
10111100110100111000010111110011
00111101011000011111100110111011
10111101100000110110001010001111
10111101100011111000111010110000
10111101000101010110000000010100
10111110000100110110110001000001
10111110010000011000000010101011
10111110000111001110110110111101
10111101000001100000100011001111
10111101111010110001100111000010
00111100011011111001100000010101
00111101011110011100101010101001
10111110001001011110010100100111
00111110000100101010110100110001
00111101100011010100010101100110
00111100010001011111100000101011
00111101100001010110111100110010
10111110001100110110100111001110
10111110001101001101101010101001
10111101111100010000111100100000
00111101100001001000101010010110
10111101010111000000100001011101
10111101000110100111001101011001
10111110001110011000110101000010
10111110010110010010011000000110
00111100010100001010101001111110
00111101101101000110011011011011
00111101110000000101100000110011
00111101101101010111110011011010
00111100010110011110001100100000
00111101010110111101011000100101
10111100111000001100011100001010
10111101101101001110011001101100
10111100010100011001110000001101
00111100101100010100011101100001
10111011101101010001110000111011
00111110100101000101010001011010
00111101110100110101111000101100
10111101011101110011100111000001
10111110100010101010111111100001
00111101111010001001000011111111
10111110000110111110000001111001
00111101110000000001011101010101
10111101111000111011001100000010
00111100110010001001101110001110
00111101010111000100011001110111
10111110001011100011010111001110
10111110100001101100100100001010
10111101111111101110101110111100
10111110000000000100110011110001
00111110000001001111011110100101
10111101010100110100100010010011
00111100100011101110000111011010
10111101100101111010100010011101
10111110010000000111111110100101
10111101010011000010100111100010
10111011001101011101010100101011
10111101001100110110101011100111
10111110010101101001100101001000
10111110010101110101101000101000
10111110100010010110010000101010
00111110001100111100100000100011
