10111110011000001000011101010000
00111100110111100011111101001110
10111101110011010001100001000110
10111101101111011101101010110100
00111101110110011010110101001111
10111101000011011001101110011101
10111110010011000001001101001010
10111101101101011010101001100001
00111110010100001101101111101101
10111101111101001001001001101001
00111101010001010001010101101110
10111101101101100100000000001010
00111100110101011001000101111110
00111101010101100111110000101101
00111101101101000010000101101101
00111101111001000110010100111010
10111100001000110000111101001001
10111101011100111111001100001110
10111110000000101110110110100111
00111101111000100000100000000100
10111101111111010111011101001110
00111011100100110000010100000000
00111101000000010010001110111001
00111101101101000001000000101011
00111100011011110111101110111011
10111101100010110011111011011010
10111110001001100101001100011111
10111110001101000001000010000110
00111101111111101101100100011100
00111101001111000010111001010000
00111101110100010101101010010000
00111110000000000100010111011111
10111101100111011010011101010001
10111011110000011101010000100111
10111110001011001111100101001110
10111110000000110011000101010111
10111110000100001011000111100011
10111101001010011011000010011010
10111110010111100101101100000011
10111101010111011001010100100000
00111101000000110101110000110010
10111101010111011100000010011110
00111101101010110001011101000000
00111101110000001101110101101001
10111011110001100111101011011101
10111110010001010010101000000101
00111101110000111011000110011001
10111100101011111111000001011011
10111110000011010010110100000101
10111100100011001110101101010111
00111011100000100010011110010001
10111110001101010000000100011100
00111100100101001100110001011000
10111110000101011110010100100100
10111101110001001011100100101101
10111011011110001101100110101001
10111110010001110100010111011100
10111100111001111000100100110011
10111101101100000000011100001100
00111100101011010110110000010000
10111110011010101010101010011011
10111101010100000110011111110000
10111101101001000011110100001011
10111101110010001111100111110111
10111101000100110101101011110110
10111101111101110101010001010000
10111110000011111101000010100000
10111110000010001010010111100010
00111101100001010101010001100000
10111110000000010001001101101111
10111101100100010100010001000001
00111110011111000001010111101111
10111110000000001000010110000000
00111100111111111011001000100101
00111110001000010111010000100011
00111101100011110100110110010011
10111101100110011000011111000011
10111011011011001101111010100101
10111101110100010110101010001010
10111110000110100000110000011000
00111110001111110000001010101000
10111010110001110000011100011000
10111101111010111001111101110101
00111101111011000110100001100011
10111101000110100100100111100101
00111101110000001101010111010010
00111100110101000010111100011000
10111110000000011000000001000100
00111011100001111000011000001111
00111110000011110100101110010101
10111110101101100010101001011010
10111010101100001101111000110101
10111110011101000011100010101000
00111101100100011100101000101100
00111101010111101000111111011111
10111110000010100000111100110010
10111101110101001001001011111010
10111100100011011101110110100101
10111110000001110001010011100011
10111100100000001110010100110101
10111101110011011111101111000101
10111101110001100011101100110000
00111110000101000000010010111101
10111101001010111111110000011010
00111101111000011111011100001100
10111100100101001010011101000100
00111110000010100101011000000110
00111011001011101111001101000010
10111101001100000110111110011111
10111101101111111011001011010001
10111100010110001000000101101001
10111101101100101101000001010011
00111110000010011110011010100011
00111110000100110011110011000110
10111101010100111110101100111101
00111101001111001100001000001101
00111101001110101001011110011010
00111110001101011001000010000001
10111101001110000100000010010000
10111110000100000010010000111101
10111110000111110001011010111000
00111100111101001101011101001011
10111101101001110000000110010101
10111110000010000010101111111111
10111101101001011000000000101010
10111101100001100010001110111010
10111100101110001000010010111000
10111101101000001011111000000001
