10111110001001110010000101101100
10111100110010000100111000111001
00111101110010111011001000100100
00111101011110110101100110101000
10111101000010010011001100000001
10111101101000110100010110111101
00111101110111010111110100110010
10111011110111111111001000111000
10111110011000011010110111010100
10111110000011101010000010010010
00111101111100011101111000011010
10111100100100101001011111101111
00111110001100000110111100101010
10111101001001010101110000110000
00111101100100101110011110111001
00111101101000011011011101010110
00111100011101110011101101010001
00111101110001010110110111010001
00111101000100011001100000010101
00111101111100010000011100110011
10111101010000000010110010011110
10111110000011101000100001111101
10111101101001001001001010111011
10111110001011010011010111011000
00111100100111101101011101101001
00111101110101101101111101010111
10111110000011101110010011101000
00111101100010001101000110110101
00111110001011110111011010110001
10111100111001010110111111000100
00111110010001110001011111111011
10111101101111111001111101000001
00111100100100011110001000001010
00111101001011010010101000011111
00111101011001110100111101101000
00111101100100001010100101111111
10111110010111110000001000110001
00111101110100000001110011000110
10111101100110001101111110000000
00111110000010100100000000110011
10111011011101010100010010110100
00111110001110111111111011001101
00111110000001110100110011100000
10111101101100100001010101010110
10111110011011101111111100110110
00111101000111000010001001011011
00111101001010110110111000101101
10111101000111110111001001000101
10111100100101110100110101101011
10111101110111000000111000111110
10111110000111001001011101010000
00111101000110010100001110111001
10111101001011001111011100100011
10111101111010101001111110111101
10111100100110011011110010001000
00111101000110100011100010000100
10111110000101010100101111011001
10111101101100111011100100001110
00111110000000010001101110111110
00111100010001001001111010110110
10111101101000110001010000011111
10111101000000101101111101000101
10111110001100100110110000010100
00111110001100100000010000001011
10111101000010111100111001100101
10111101100100010011100101100000
00111101101110011100110011111111
10111101101100011010010101001000
10111101100111101000101001101100
00111101000101101111111011100010
00111101001111111011111001111011
10111110000111100111000000101010
00111100101010101100101001101101
10111110000011000001111001110001
10111100100001000001001001111001
10111101011001011010000001001011
00111101111111101101111111001001
10111110000001110000001111100011
10111110001011001011010110110000
10111110000010010010001000101001
00111110001011010101100111000100
00111100101011000101001001010110
10111101100001010100010011001111
00111101100010101011111111101100
10111100100111000110110001101101
10111101011010110000110011011011
10111100111000110000111011101101
10111101111011000111100011101101
10111101100001000011111101110010
10111101000000001010100001111100
10111100111111100010000000101011
10111101101111101111001011100000
10111100011000110010111000011001
10111110011011110000111100001101
10111101110110000011111001000000
10111101100100101011000101110111
10111101101110111000110001111010
10111100011111110011011110000000
00111101111010010101011100111101
00111101001010110011111000000101
10111101010111101100001000010110
00111101100000011010101110101011
10111100110100110011011111100001
00111011010010011000110001010111
00111110011000011011101010111101
10111101101111101111011100101001
00111011000100011011001110010001
00111100111001010000010111111101
10111100100010110100000110101101
00111011111000111010110111101001
00111110010010011111011010101111
00111101110011111110100101101101
00111101101101011111110010010010
10111100100001000010101110010011
10111110000011101010110111011011
10111100110011001000010100000110
10111100101011010011011100010110
00111101010001010110011111101001
00111101101010011001011001111001
10111101011100000011000110110100
10111100111110000000000111110101
10111100100011000010110101100001
10111110100010110000000101110110
00111100010110101010010100100100
10111110011011010001011110100101
10111101100010001010101000101111
00111101010001110010111011001001
10111101011011100101100001111111
