10111110001101000010010100111111
10111101011011100101001001110111
00111011110000101010010000000110
10111101110001111111101110010010
00111100101001100010000011010110
00111110011000100010000011101110
10111110010001010101101001101000
00111101001101101111111011000000
00111101011101000010000011101101
00111011000011001110111111100100
10111110001110111011001101000110
00111101010110001000100100010010
10111101111101001110000001101100
10111110011100010010011010000100
10111110001011010111100001010101
10111110100000100001111101101010
00111101011111001111101101111010
00111101100100000010001010100001
00111101100000010001011110011110
10111101111011111111000100101001
10111110001000000101001100101111
10111101001011111111101001001001
00111101100110110110111010001101
10111101010011101110000000001110
10111100101001011101100001001111
10111101100010000001100110111011
10111101101010011001010011000101
00111100000110111101001110010000
00111101000001000100001110110000
10111101010001110010011100100101
00111101101011110010111001100111
00111101111111110111000011011100
00111101111111001001010110001110
10111101001100110001110011001111
10111110011010010011000010100010
10111101100010011110011010101010
00111101101110001011010001001101
10111101110110100001101110000101
10111101100011001011111100000110
00111100110001101110000001000110
00111110100000000100111001110000
10111100101001100001010100110000
00111101100100100010010111101111
00111101101010000110111010001100
10111101101101000010110111001011
00111101101000011011111011111111
10111110000110001111100111001100
10111110001100010111000000111101
10111101010101111011000111101100
00111101110101110010010101111001
00111100110100110111010001101011
00111101010011111110010000000100
10111101110111110101001011101001
00111101110001000100011011000011
10111101101001100111010011111010
10111101101000001100101001010010
10111101000100000011011011010110
10111101111101110011101110100010
00111110001101011110100011001101
10111100010001000010000110000111
00111101011101011100101101010000
10111110001111010000101101000011
00111101101111011101110100011101
00111011100011000010010000111111
10111101111011011101011000010100
10111110000100110111010000110001
10111101100111100000001001100100
10111100110101111011100010100100
10111100111111000000101100100100
10111011100100000101101001010100
10111100111100111000001111001011
10111101011010110011101110111100
00111110000001110100000000101010
10111110000011101001110101011011
10111101111101000110111010100111
00111101000101001100111001110000
00111100111111110001001000111001
00111101000110101111010000100111
00111101010111111110010010100011
10111101100011010010010110000001
10111101111100010010001111001100
00111110000011010111111000011101
00111011101110000111010011010011
10111101100110001010100010001010
10111101110010011001111111111101
00111100001011111011110100000100
00111101100110000001000001110101
00111101100000001101010110110010
10111110000000101101000010111111
10111101001001101010110111110000
10111101111011010110101100110010
10111100111100010010001110011100
10111110010011000110011101000100
10111110000010100001110110100001
10111110001101001101101000101110
10111101110101010011101101110000
10111101111110101011001011010101
00111101011011101011011000011000
10111101100110100000010111010110
00111101010011001001111101100101
00111100100000110001111101100101
10111101001111010010111011100100
10111100001101110100010100000000
00111110000101001010101010001101
10111101101001000011101011001110
10111110010000011111001111001101
00111110010110100111000010110110
10111110000111011000000100100100
10111101110001101000000110110010
10111110001011010101101010111011
10111101000111010101001001110000
00111101000111010001111110010010
10111101000111101000111001101000
10111110001110101111001001000111
10111011111000010010101000010101
10111110010001100001011100101111
00111011001110010111011000010011
00111110001000100110010100110110
10111110001100100011101000010001
10111100100101100100101011111100
10111101010001101001110111100110
00111101010000000001010101100000
00111100101001100110011110111001
00111011101010001110000101100100
10111101110110101100101100101110
10111110000110010011101101110001
10111110100001110011111111000001
10111100100111100111000111101110
