10111110000010110111100100110000
10111101101101111000000010101100
10111110010010111001011100101011
10111101101011100010001010111010
10111100111000110100101001110001
10111101110100110101011111001110
10111101001110011100100000011010
00111100100100001000000011110100
10111101111101010100010111000010
10111101000110100111000110011010
10111101101101111000101000101101
10111101000011101110101000000010
00111101101110100001010100101000
10111110000000101111000001110001
10111100111101111001010100111101
10111101101110010000000111110000
00111010100110101000000000100010
10111110001011111000101000000001
00111101101101001011101011001110
00111101001011000100010111000010
00111101110110111100110110011100
10111101010100101101111110101101
00111100011000101001101000000110
10111101111011111000010100011001
00111101110110010000011111010100
00111100001001000011000000010000
00111101110111001100010100100111
00111011101101110001011101101101
10111110000101011010001011110010
10111101111001001011010100101100
10111101010011001110011000000100
10111101100000111010101111101010
00111101100111001001101100011000
00111110100101100100100000010100
10111101101101101000110110101100
10111110010011111110110010010111
10111101110100100100100101110011
00111110000100101011111000010000
00111100111110011111100010010111
10111101101100001101001001100101
10111101110110010010001100100100
00111101011110000111011011011100
10111101100110111100010111111100
10111011010111100110111110110101
00111100101011010001110111011011
10111100101000111010101011110000
10111101001000101010001000001100
00111110001000111111000110011011
10111101001011101110110001000000
00111101001100111011110101100100
00111100110101101111010100010101
10111101111001101101101101100110
10111110000011111111111010111100
00111101100111001111100001100011
00111110010001011011110000110100
00111101111101110100011010111110
10111011011101001001000001001011
00111100010100100101010100011110
00111101100101000001100110100010
00111110001100011101110001110100
10111101000010101101100000101100
10111100100001011011001100110001
00111101110101101001001011111011
00111101100110000100010001110100
10111011111001101101011011010011
10111101111110000111010101110110
10111110001011000111101110110100
10111101001110010010100010010011
10111101011101101100110011011110
10111101000011001110111000100001
00111110000000011010000101101011
10111101101110110000100001111001
00111101011101111001010100000011
10111110000001100011000011001111
00111101101110010111100111101100
00111110000100110100000011010111
10111101111101001111111011000100
10111100111110001101100000110010
00111100010111100000000011110111
10111101010010110111111010000000
10111110000101000000100000001111
10111101101010111100001111000110
10111101111001001010110001001010
00111101100100000000101111110111
00111110001100100011000001101011
00111110010011110010100010111010
00111101111001010001010100110110
10111101000110100001011001110110
10111101110010111111010111011111
10111110000111000011001001000110
10111100111100010001111110100110
10111101001111000011111111101110
00111110000111100001101000010101
10111101101100010100110000011011
10111100110011101000010001110001
00111110000001110100100011101011
10111101111011011100011000011101
10111101000110100101111010010010
00111101100101001001110010110101
00111101110011111111111000111110
00111100011000101010101111100011
00111101110000110110101101101000
10111101001101100100011100011100
10111110000000000110010111111000
10111101000011100100110110010111
10111101110101110111101111101000
10111101001011011000111111111101
00111100100001100010001111101111
10111101001001001100010001111100
00111101100100101110001100010101
10111110000000001011010011100100
10111110000001011000110101010100
10111101100001001100101011111100
00111101010111010000110000100110
10111100111100011001000011111011
10111101101111000111101111001101
00111101110001001010011001101111
00111100110100010000101110001101
10111110001100011111100101010111
00111101010110101000000110111001
10111110011111000010000000111000
10111100110010110010000010100011
10111100011110001100100100000110
00111101110010101110001000110111
10111110000001000101010110100100
10111101001010001000010101011010
10111101101110000100111001101001
10111110001101001011000110011110
