10111101101101010110110000000101
00111101110010111010101111010010
10111110010000101100101100010010
10111110001110100101101111101000
00111100110101011111000110001010
00111100101111011101110000000011
00111100100001011110010100101110
10111101111100000000011101101110
10111110011010000101000000101001
00111000110000001010100000011110
00111101100001011001101001101001
00111101101010010101101011000101
10111110010001010110010000100111
10111101111111001010101101010111
10111010100001010011011110111000
00111101000010000000010100101011
10111101010110111000000000101010
10111100100111100110101111010001
00111101111100110110110101110001
10111110000000000101001010011111
10111101101111011011011011010111
10111110010010111101000110010011
10111110000110000110011111100011
00111110001110110101010110011001
00111110000101101011101101001000
10111101001101100110000110110000
10111101101001001110100000011101
10111110000101101011101011111000
00111100100010110111010100000101
10111110000100110110100001110010
10111101010010110010010011100011
00111100011110100111000010010000
00111101011010111000101001111100
10111110010001001101101010100101
10111110000000101010000000101100
00111101110001000010011000111000
10111110011111111011110101001001
10111101001111101001010100111011
10111110011011010100100101000110
10111110001000010010001010000111
00111011110111010000100010000001
00111101011100010110111100011010
10111110001011010110110010011010
10111110000111010011010100101000
10111101110101001011111101001000
00111110010010010001001110110110
10111110001101000101111110110000
00111100100011001101111111010010
10111110000101010110100000000010
10111101010110010001000001001010
00111101101011010100100111001011
10111100010000100111110110101010
10111100100111000101110100010111
00111101111011111100110000010101
10111101100100101100100010101101
00111100011000101111111110010101
10111110010000110001101101000110
00111100101101100101000111100111
10111011101110111110011111000001
00111101001010110000001111110101
00111101100100101111111111101001
10111110001010100111010111110110
10111101101010001000011010101010
00111101001010110111110001000110
10111101101001100100110011011010
10111101111110111101011001111111
10111101111111100101100111100101
00111110010101001100111000011000
10111101110011000000111001100111
10111101100001011011000100111011
10111110001001001110000100100011
10111101001111001000011101010000
10111101000001111110100011100011
10111110010111000101010110111001
10111101000011101111001110010000
10111011011100100011011100110011
00111110000010110001000111011000
10111110001100101111001110010100
00111101111100011010110100001101
00111100000101100000110000110111
00111100100010111000001111111010
00111100101110110100001101110110
00111100101000100000010110010110
10111101001101111001111011101010
10111100001101111011110110101111
00111101101111001000011001010101
10111110000110110011101000000100
10111101010010000000100001100010
10111101001101100000111111110101
10111110000110011011001111001011
10111110001011010011110011100101
10111110000100011101110101111000
00111101110011101010111001100001
10111110010100110001011101001101
10111101111100110010011011000101
10111110100101001100110010011000
10111110100110100111010010111100
00111101010110010000011000110111
10111110001010001010100110010111
00111110000011101000001001101110
00111110001110000111010100101111
10111101011110000000100000010111
00111101000100001000001010010010
10111011100111100100101011101001
00111101001100100000110011101010
10111110001100111001011010010110
10111101110110110010110110001010
00111101110011100100101010000100
00111101110010010010111101001100
10111101011001101001011110001111
10111110000001110110001010110101
10111100101011100110101111001000
10111110000011011100001001010111
00111101101111011010001101101100
00111110000111110110001110101110
00111110000010000010111011010000
00111101110101100101111011101010
10111110011011110111110011101111
00111110000011011001101111101011
10111101101010100100011110011110
10111101110110010111000110111101
00111110011100101000011101011010
10111101011101011100101101011011
10111110010010000110111001000010
00111101110000010110001101110011
00111101010010110011100111001001
10111101110001110111000000000101
10111101111111101110101110110011
