00111101110100100101000010100111
00111100001110010000101100000111
00111101100101101101010000110110
10111101110110000110100001001011
00111110000010110111001110111001
00111100011011101011110011010100
10111101100011001111100111011101
10111011011010100000001000011010
00111101100110100111100011011110
00111100101111001011010111001010
10111110000110110000000111100010
00111110011001011100101010010001
00111101101101100100101101000000
10111101111001100010110010011001
10111100001111110110001100001000
10111110001001000000000001111111
10111110011010010101010111110110
10111101011000010110000001000101
00111110001011110001000100100010
10111110001110110000010001111101
00111101001011100101000010111111
10111110000000000100011001001000
10111110010101110010011011010111
00111110000000101011100000100001
10111101101010110100011111010010
00111110000010101000001011001101
00111100010001010001111101010100
00111100001100000111111110010110
10111110000110000111100010011010
00111100111001110110101111000000
00111101000101111010110011011111
10111101100001001010011010111011
00111101100101111100111101010110
00111100110010011100101000001111
10111101100110001000000111110000
10111110001100110011001100110101
00111101111011001011011010011100
10111101010000101101101011100101
10111101101100001100110101001111
10111110000100101000010001100111
10111101110010001110010100010011
00111101110001000110100111110001
00111100101000111001000000110011
00111110000010001000111100001110
00111100110101100011010100000100
10111101101101010001001001001011
10111100110101011100000110010000
00111101100100000111010011011001
10111100011001011000110001101011
00111110100101010010100010110111
10111101001010111011011111011011
10111101101111000011001011011110
00111100100100101010010100101110
10111101100010011100101111011001
10111101100001110001110001111000
00111100101101010000100101101110
00111101011000100011011110101000
00111101001110111100110001110101
10111011110010101000111101001100
10111101000011000011001101011111
00111101101101101100110001100010
00111101001001111110100010001001
00111101100001001000111111010000
10111101000011010001001100001011
00111101101110000110000100111110
00111101101001101110111111011100
10111101111100011000110100101010
10111101101101100111100000111000
10111100100101111101100010000111
10111100010100011001110110001111
00111101101100100000000100111101
00111101110111011101100011001110
00111101101001100100010001111100
10111110011100011101101110110111
00111101000101100101111111011010
00111101010001011010101100101100
00111100111101111000011011010111
00111101110001010001110100101000
00111110001010111011100110101110
00111101100011000110010100100110
00111100101111011001110110001111
10111101110000110111100110010101
00111101001101001100110011001001
00111101100000000110111001000011
10111101001111111110110000111110
10111101101011111101001011010010
00111101100110001110001101010000
10111101111110000001001111011011
00111100110100110100011001011000
10111100101110010011101100000111
10111101000111000101101011101001
00111100100101001110011101000000
00111110010001101100110100110110
00111101011000111011111001010110
10111100110110011110101010100011
10111110010010111001110101001100
10111101001101101011001000001000
10111110000110110010011110110111
00111101111000101010011000010001
00111101101000111110000010110010
00111101110101010100000110111000
00111101010100001100001010011001
00111101100001011100111000111110
10111110000101010011010000011001
10111110010010100010111100100001
10111110010010000101110101111001
00111110011100010001001110110010
10111100110100110000101001100110
10111110000111111101111010111111
00111110001011011100110010011100
10111110000011001010001100101101
00111101000101101000101010000000
10111101000000110101001000001100
10111110000001110111000100101100
10111101000111100101000011110110
10111101111001101100011111001011
00111110010100001001111101111111
10111110000100110000001100110110
10111101100011011010101101101000
00111101001100000111011011110110
00111110001000011010111111101100
10111101100111011100000100100000
00111101110100010011101110000000
10111101001111000111111011111100
10111110000110101000100111000100
10111101011110001011111011011011
00111101001101000111010001010001
10111110001010110101110111110010
