10111110000001000001010000001001
10111110010100001110110101111100
00111110000001101111110001100110
00111011011100101100100100111001
00111101011101010011001110110001
10111110100111000111010111111111
00111101011101100010100001100101
10111110000010100011011100101110
00111110000010100000110110000011
10111101000001110110110001111111
10111110011101110000000000010100
00111100100001110100011001010101
10111110000111000010110001101000
10111100111011010001010000001001
00111110000100111001000100110000
10111100101111111101101011110001
00111110000111001010100100001100
10111101100011110000111111001011
10111101000111111000101001011101
10111101110000101110111101011010
10111110010000100000100101000010
10111101000101100110111111010001
10111110001100000100010101100001
10111101000101001100011001110111
00111101000000100000100111111000
10111101101001001000011111100111
10111110000011001001101101001100
10111101110000011101101011110000
10111101100101011000010110011000
10111110011101010000101001101001
00111101110011010010111100001010
10111101111010000100010100111010
10111101011111000010010101111101
10111110001100111011110101101000
00111110000110101110010110000111
10111110001111101011001110101101
10111100110000101001111100011111
10111100100100010000101001110110
00111110000000101000110000010001
10111110000001111100111101110110
10111101110110011100111011110101
00111101001010011110000000111101
00111101001001111000001001001101
00111101100011001011100011110101
10111110000001110000101001001110
10111100000001101010010000000010
00111100111101001001110000000010
00111100110001111010011000001111
10111101111111000011100000101011
00111101100000100011011110011000
10111100101100001001001110111011
00111100011011000101110111110000
10111100001010110011000111000011
10111110001010111111001010100100
10111101000000101110010001100110
10111101011100010001111111010000
10111011100001010111100101110001
10111110000001100101101110100010
10111100011010111110000110110111
00111101110110100011101000010001
00111101000000101100010010111010
00111110010101001000111110111101
10111100110110001011111101001011
00111101101110000011000010001110
10111101100011111010100110100100
10111101101001001000000011000001
00111101011001111100110010110100
10111110001001111001010001000111
10111110010100010011010001011011
10111101111111101011111001110010
00111110001000111110001000001000
00111110011000010100111110110100
10111110001000111010000111000101
00111101010100001011001100000010
10111101001111101111010010110001
00111101110001010111011110110100
00111010111011011110001000100001
10111110000001011101010010110101
00111101110011001100010100010101
10111101101100101101110100011011
10111101111011111000111110010110
00111110000000011110101100100001
10111101001001101100010001000110
10111101110101111000001011000001
00111100101101101010101101101011
10111110100010000101110011110010
10111101111100011101111110011110
00111100100101100001110010011110
10111110100101000010110000000100
10111101100110101000000011011111
00111110000010000011010011010010
00111100010110001100110000101001
10111110011000010001111110100101
00111101101100110101111011111101
00111101110111111001110110100001
10111110000011101111010010101111
00111100100010001010000100110001
00111110010000011000110101010010
00111100110001111011110001101001
10111110011011001001011001000100
00111101101000110011101001101000
00111100100000111000110110101110
10111101110100000010111010111101
00111110000011010101011011101010
00111101100001010000101001101011
00111101100100101110111011101101
00111101111011100101011110100010
10111101101101101011110101101011
10111101101000111000110010010011
10111110101000000000111100111010
10111010101000011111000000110111
00111110001100000010111000011101
00111100101011010100000110111010
00111100010111011011101101111111
10111101101110101011010000011001
10111101110111011001110001011011
10111110001000100011010101001000
00111110001101110101010110100110
00111101101100000010111101111001
00111101100110110010011000101001
10111101110100001101010110100011
10111110001000111111010110100000
00111010110011011101001000111110
10111110010011100100110101111001
00111101000001101000010000010111
00111101000010001010111110101111
10111110001100011010100001101111
00111100110101111011011010001110
