10111101000001111011110101100011
10111101110100011000100100011010
10111110010000011101000001000110
10111101100000100100000110010111
10111110000010100110010010011001
10111110000001110001101000011001
10111101100010101100011000001110
00111101000100101000110011000010
00111101001000101100100010110101
00111101111001011101101110001111
10111100010100001100001110110000
10111101111011011111111000111101
10111101100001010101111110111001
10111101111110011101111101110111
10111110001101010010011001010110
00111100100011011010110111111010
00111110001111110101101001001010
00111110001110010100001101111111
00111011101000010000010001111001
00111101010100000010100000101111
10111101010111101011010111001001
10111110001011101010101000010101
10111101001111111100010100011011
00111101001001111001000000010001
00111110000000101001001000000010
00111101011100111101111111010000
00111101111101001011101001001001
10111101100111100011110010111110
10111110001100111011000100001000
10111101111011101101111010011000
10111110100000110111010010111110
10111101110100100111010010101111
10111101110100010111100101001110
10111101111110101101011000110001
10111101000011001001011101111111
00111101010011001010110100000110
10111101010010100101011011010010
00111101110001001001010001011110
00111100101101100010100011000011
00111101101010101100111101111001
10111100100111111011100111110011
10111101100111101100000010010101
10111100101101100011000000010101
00111110000110000011010010101110
00111110000011111011110100001100
00111110000101010001100010011100
00111101000000111011001000110111
10111101011101010110001100010001
10111110100001001011111001101011
10111100100110111011110011000111
10111101100111101110010110011011
00111110000000011011001000100000
00111101010000011010100100001010
00111101101100010000100101001011
00111101001100111100000101010001
00111101110110100011110100000100
00111101000010100110010001010011
10111101101000100011110000110111
00111101111111000001100000110100
10111110011000001011111010000011
10111101111110001000101100000010
10111101100101110010111101111010
10111101010101010101110110100111
00111110000000101010000111111011
00111110001001111001101100101100
00111100010101010001000010000000
10111101010101111100101110010111
00111101110111101001101011011001
10111101000000001101011110011101
00111110010011000001000000010110
00111110000000001100011111111101
00111110000010000111100011011101
00111110000011001000000001101011
10111100101000110110000010101000
00111100100101100001101111001011
00111110001110001110010111110111
00111110000110000110101010110100
10111110000100001010111111111101
10111101010110111101000010111000
10111101010110010100011100010101
10111101000111001101010100111000
00111101101000000010001111110111
10111101100100010100011110010100
10111110011111110110101110111100
10111101100111011011001110100011
10111101111000000101100000101100
00111100111011001100110100101000
10111100100110100110100001001010
00111101110110100100011001010110
00111101110100101100010011111000
10111101110010110111100010001110
10111101000100101000000101001001
10111110000110110110000110011011
00111101010110111011100111001010
10111101110100110111111001101001
00111101111011000000010010100100
00111110001000101001110010111100
10111101111000111111110011111111
10111100111011011010101101001000
10111101101111101011101001110010
00111100000011001011110101011010
00111011000111111000110011010011
10111101001001101111101111010101
10111110001011101000110111001111
00111101001011000011001011010001
00111101011010001011101100000110
00111100010110000111110110010111
10111101100111011111100100100111
00111110000011110000101111001010
00111101110011110110011101101111
00111100110100011100001101111000
00111011001010011010001111111001
00111101111110000011101001010000
00111110010000011011000010001111
00111110001001010011101011001100
10111101011111111111010100101111
10111100110000101111101011000101
00111101011001011001100011110001
10111101110011100100011010100111
00111110000001101110011111001101
10111101001001010000101001001101
00111100110000011001111010101100
10111101001010100011101110101001
00111101101100100110000110010111
00111110000000001111011111000011
10111110000101110011100100110001
00111101001010010101100110100111
00111100001111101110110010101010
