10111011000111011111011100100101
00111101001110110111000001011000
00111100111100101110011010101110
00111100000001010111111110001100
10111100110010101100000001000111
10111101000100111010000110110110
10111100001111010100110110100111
00111101100111010011111110110111
10111101110110000001111101111111
10111101110100111110011101111101
00111100100101110011110011101001
10111101011011011100101110001110
10111101010011100101101101100011
00111100101111001101111110111011
00111100000101000100010010110010
10111110001011011001101001101010
00111101100100100110100101000111
10111101101101110011001010000100
00111100001010001101001010100010
00111100010111101111110000001010
00111110010110011100001110100110
00111110001001110001101100001110
00111110010000010001111000001010
00111101011011100011111101010010
10111101110010110011011100010011
10111110011001000011101110110110
00111101100010110010110100100101
10111110000011111101100110100010
10111101001111111000000011000100
10111010110010111101101010100000
10111110011001101000010010010100
10111011100010101001001001011010
00111110000111101101111110101001
00111110001000100011100001001101
00111100110000111011111100011101
10111011011001011111001101100011
10111110001110100100110000100101
10111101111000100011010011101110
10111101111011001000000001011000
10111011111001011100110101100100
10111101011011001111010010100001
00111101011110111110110110111100
10111101110010111101100011110010
00111100111110011111111110011100
00111010100100110001010100111100
10111101111111000100111101111000
00111101001010000110010011010011
00111101110101110010010101100010
10111100100111001101100011011001
00111110000000000011111111111111
00111101010100011101101011000001
10111101010011010011101110011101
10111100110111110101001100111011
10111001101001100011110000001011
10111101001011001101001111110111
10111101100001000011101010010011
00111110000111000110100011000101
10111101010000100100000111010001
00111101101110100011110001010101
10111101001111101110011010011100
00111101110100011111110100100100
00111101010000100001101010101011
00111110001001111101110010100011
00111110010100001001111001110101
10111101100111011001001001010100
10111101110011111011110100000111
00111101111100000010001001011001
00111101110000011101100011111100
00111101010010100001110011110011
00111100100010010000010111001010
10111101010100110010100010101010
10111110010100001001011011101010
10111110001111100001011000010011
00111101101100001111111111111110
00111100101101001001101010010011
00111101111111001110100010101011
00111101000000001000101110001101
10111101111011000111011100010000
00111100000000110110100111100001
10111101010100110100110010001011
10111101100100011011110001110111
10111101011110100011000000101111
00111101101101010110100110000110
00111100011010010010011101100001
10111110000110100111000001001101
10111101100011011001011100101111
00111100011010110000000011000010
00111110010010000110100000101111
00111101101101101111001010011100
00111101010111101110110011100011
10111101100100110100000111110111
00111101000000101010010111110100
00111101110111101100001101110010
00111011100001100010100110101110
10111101100010100110111010110100
00111101100011110100001100111011
10111110010011001011011101010111
00111110000101111011000010110101
10111110010110100100110010010110
00111101010101001101101111111011
00111100100111010001110011011010
10111101000011001000001010001100
00111101010000110111000101000100
10111110001011001100001011010110
10111110000011111001000001111001
10111101111000100101010000010001
10111110000101010010111010110011
10111101000010011001101111111101
10111110001011101100001001110000
10111110001001110011011100100001
10111110000110000101110110101001
00111101111101011010001101111111
10111110100000000011011110101100
10111101010111001101101111000000
00111101110000011011001000011111
00111101101010010010100101111001
00111100101011110000001110000110
00111100001000111111110001100111
00111100101111001000010101000101
00111110010111110001101110101000
10111100100101011101110001101010
00111100110111010001110101110011
10111100010111010101001101100110
10111100011110100000010000110010
00111110001111011101000101110111
00111110000011101111100111110110
10111101100000101111111000100101
10111101001011011111011111110101
