00111100010001011110010000100110
00111110000001001110010010110001
10111101001000001011000100000001
10111110000010001001101011101011
10111110001111110110010011100011
10111011111001100010010110000011
10111101011001111100101010100000
10111101001100111101000010001000
00111101010101011111110001011110
00111101100001101010100000000000
00111110011011001111010100111011
00111110011000101000010010011001
00111101100001001101000100110111
00111101101010010000101110110010
00111110010100111101100000100000
00111101100100111100110100010001
00111101001001001001000001010000
10111101110111110000011011010011
10111100100111110110101111110000
10111110000110100111010100101110
10111011100101100011010110100000
10111110011101100011111011101111
00111101010011111000001001101000
10111110010011001001001010000111
10111101010001110011001010101110
00111011011000010100111100000000
00111101101010001010010011001111
10111110001010001101111101010010
10111101110000000100101011110001
10111110000001111011111000111001
00111101110000110111110001001001
00111100100111100111011101111001
10111101101111011101010110000000
10111110000010110111011011100010
00111101001010000101111010110010
10111010111100011000110101001001
10111101011110100101101100001011
00111110000101100011100010110011
00111110100001010100110001010001
10111101000010100101000110100100
00111110001000000101000100111101
10111101111001111101111010111011
10111110000011000011100100100010
10111100110010110100101011011000
10111101100000001010001001000010
10111101000111010100100100001101
10111110000010011110111100010011
00111110000111010101110100001100
10111010111001100100000110101000
00111100010000110010011100001000
00111101011100100011110010100111
10111110001001111011110101010101
00111110001100011001000001110001
00111110000011111110100000110010
10111110000100101001111111010010
10111110000011111111001010001000
10111101001110001110110110000111
00111101000101010010100001111101
10111110010100000000101001111100
10111110001110010100010100010100
00111110000011010101010110101110
10111101000000011101111011111010
10111100010001100111000001000101
10111101001000000001010100000110
10111101101110101001100101100110
10111101100010110100001001011100
00111101011101101001010001101101
10111011100111011101001110001011
10111101110001010001110101111111
10111110010011011001001111111101
10111101110111001001011001011110
10111110001110011100100001000011
10111110000001000010101011010111
10111110001111110101001010011111
10111101010001001001000010010010
00111101010001111101100000101011
10111010101000111101110101101010
00111101010001000001010000110001
10111101101111011110110000101001
10111101011100000010010101111100
00111110010010011010100010111011
10111100100111011110100010111011
00111100101101000001110111010101
00111100001100011110110100001011
00111110000001110110101100000010
10111101110111000100110000110001
10111110001010011111101011100100
10111011010010110110010111010110
00111101111110010100101001100101
10111110010001111100000011010011
00111110010000011000001101110001
00111101111011000011100101101010
00111101000001100000100101100101
00111110000111100100110010010110
00111100101110000000100111100001
10111100010110101111110010100001
10111110000011011011000110010011
00111100101010011100000110110110
10111110000100100111101010100110
10111101001011111101100101111110
00111101110001110100111101101101
00111101111111010111001011111101
00111101111010101111101110001000
00111100010011111111010011001011
10111110001011010110100011111001
00111101110110001110110110111101
00111100101110010101111011000001
00111101100001111011110011010011
00111100101000101110011000010101
00111101000001001011010100111101
00111101101100100010111100100011
10111101100000100111010111000101
10111110000000100010101100011010
00111100011000011110110011100010
10111100101001111100000000010001
10111110011011011011111100011010
00111101110111000101111100101010
00111101000111100111100001110100
00111100000001101110110111000010
10111101010001100100010010101000
00111110010011100101011101000000
10111101011011100100111011011101
00111101110011101000100000110001
00111010011110000111010110000110
10111110010001110000001010000011
10111100111100011011101000110010
00111110010011111111111011011010
10111110000101000000011110100100
