10111101111011100001100101101001
10111110000011010100010010101111
00111101001011101110111110110100
00111101001011110000011011011110
00111100111100111111100111001001
00111101111101001110101110000110
10111110011111100010111011110011
10111101000111101001001001000001
10111011100010001101011111001111
10111101111001101001100011100101
00111101110011110010101100100010
10111110000001100000110001111011
00111011001010011111110101010000
10111110000111000000010110010101
10111100110111100100110000001101
10111110000110110001010101001010
00111110001011000000011010000001
00111011111001101110101110001011
00111100011100110010111010111011
10111101100111000011000011011000
10111101111101111110100110000111
10111110000000010100101001100001
10111110010000100100101011000110
00111100100010111011010101010011
10111110000100001001111001011000
00111101000001100100011000111001
00111101111101001110010010101011
00111101001111011010110110010010
10111101010101111110011101100101
10111110010101111000111111111100
00111100001100110111111000001011
00111100111111101110111100110001
00111101000100110111111011111001
00111101111010000011010010110011
10111100110010100001100010000000
10111101110101100100011100100110
10111001110011010001100001011000
10111110001010111010011110110100
00111101111110100000101011011101
10111110000011110100101010111100
10111110010010011000100001010101
00111100110000100101100011100101
00111110100000000010000000010111
10111101111110011000010001001100
10111101100010010000101010011100
00111101000101110110000110100011
10111101011100110110101001011011
10111101011000110000101101011001
10111100100010000001110110100111
00111110001000001011111011010011
00111101110100010101100110110110
00111101111011001001100001010001
10111010010100010011010011011011
10111110001111100110010101011011
00111100110001001100011100100111
00111110000101110010110100000001
10111101101011111010100010011010
10111101101000011111111001111001
10111110000001011100001011010110
10111110010101100010100101101110
10111101010001001011111010111001
10111110010010100110010000110110
10111110011000011010001001000000
00111101111001110110110010111001
10111101111011100111001111010001
00111101001100010111011000001011
10111101111111001001110100100111
10111100111100011010010110101100
10111100111101111010001100110110
00111110000010000011001011010001
10111101101111010101101001110110
00111110000000100100000000010010
00111011011000011001111101011100
10111110000101110000000100011100
10111110010000110100000011110111
00111101011100001000011100011101
10111101111101100010000111111001
10111110000000001010110110000010
10111100001110011000110110011001
00111011101111101001001111010110
00111110011110011001001100100100
00111110000001000110011110001001
10111011101010000101000100001001
10111101100010000111110101101001
10111101101010100000011110111101
10111110001010111001010000101000
10111101110000111111010011010111
10111101011000110010100010110101
10111101101001101100001111000101
10111101100100000100101101001101
00111101111011111101001010110111
10111101111011101101010001010101
10111100100001101111111100001101
10111101111000010011101000111110
00111101101010101110111100001101
10111110010111001001110111011111
10111110000100110100111010101101
10111101001000100110110111010000
00111101100010001111010110010011
10111101101000111000101111010010
10111101000111111010110111101101
10111101011001010100001111111100
00111100100101010010101110001100
10111110000010011001010100001000
10111110000000101100001011010011
10111101111001111111101010000001
10111101100010010111001110000000
10111101100110110110001010001010
00111101100001010000000101111000
00111110000110010001101011000110
10111110000111110000001010101011
10111101101010000110000111010010
10111110100000011101101110000011
10111101110111101001011010111000
10111010011000010110000011010010
00111101100010111010010100001011
10111101000000010110101100000111
10111101111011101010101001101100
10111110100001110100000100010101
00111100100010111011000101000100
10111110010000011101110010000000
10111101000000111001110101011011
10111100101010111111010100111110
10111101000000000000101110101011
10111110000001011011101111110100
10111110001100101001110100101000
10111110010001010010101101111011
00111110010000010000100100101000
