00111011101101011101001000111000
10111101111110000100100100010011
10111110011001110111100010001010
10111110011110001111100000000011
10111100100100101110001111000111
00111011101100001010111001010000
00111101101000111000100000000101
00111101100111001010011100100010
00111101000001000011001111010001
10111110101000101010000111001011
10111110000000110000111101111000
00111100001011011110011111010110
00111101011001100010101000001110
10111101110001101010011000010010
00111101000010010001110100010001
00111110010110011011101000101001
10111110001100111000000110101010
10111101111100111110010111001100
10111101111101101011101110000111
10111101111010100100111100100111
00111101011011100001000001110101
00111110000001011110000111100101
00111101101110011110101001010000
00111101100101000100111010010000
10111110010101100001110100001100
10111100110101011110010101100010
00111101111101100110101001011000
10111110000010001100001101011100
10111101000010111100110011010010
10111110001011001010000000011101
10111110000100101101110100000101
10111110001001101011110110110010
10111101110010011100110010101100
00111101111000001000110110101110
00111101101010011010010001010101
10111101001110011101001010110010
10111100110111011001000110110100
00111110001101100100010011011111
10111110010011010000110110101011
00111010100011111011010011011001
00111101110111110101110100101001
00111110000100111001111110101010
10111101010001111100110100011000
10111101111111011010100001101111
10111101101110100010000000001100
10111110000110111010000001111101
00111110000111011001001001000011
10111101000000101110110001001011
00111101100010000000010101010110
00111101000110000111011001011001
10111011010000100110110010011111
10111100011010011110000111101110
10111101101011011111111000110001
00111101101010110001000111011110
00111100100010011101010100000001
10111101100111111001000110010001
00111100101110001010001001001100
10111110011011010100101001000100
00111101011000100001100010000110
00111101100100100001001011011111
10111101101101000111001100110001
00111101110011001000000111100001
10111110100111001101100100011110
00111110000001101000111011011001
00111101011100011000111100010001
10111110001001010010100110001001
10111110001001010111111000011000
10111101100000000000001101100110
00111011100000111011101100011000
10111110001011101010010010001100
10111100001111001011000111010100
00111100011100100100010011100110
00111100100111001001010000011011
10111110000110001000011000001001
10111110000110001100110100110101
10111110000001111010110010010110
10111110001011111100111000100011
10111110000110111000010100011011
00111101011001110001001011001110
10111110000000111101111101001000
00111100100111101110000111010111
00111101101100000000101110011100
00111101100001110011101000110101
10111110010000010000011010011011
10111101110011100010111011110001
10111101101000000001101100010000
10111101110011111001110011011010
10111110000101101110110100110111
10111101000101010101101101101011
10111110000111100000110011001100
00111101001010001001111011111011
00111110011101110101111101010101
10111101000111011001110110011010
10111101001101000100001010111000
10111110010100001010110000000101
10111110010010010101100001100101
00111100110011100001110111111111
00111101011011010010101100111011
10111100101010000000101010011110
00111101110110100101001010111011
00111101100100001000000000011110
10111100011100101110001100101111
10111110000000010001000110001101
10111100101110010101110000110001
10111100111101111010100001100001
10111101111100011110000101110001
10111100111110001111100010111101
10111101111111011101011000111011
10111101101001111010111010111111
10111101110001110100011100011100
10111110000111000010110010010101
10111101111111000111010111001000
10111110001110010011110000101010
10111101001001110011001111011001
10111101111100011000011000010101
10111100000111110001001010001101
10111101111000011001011111110101
00111100000000001011110110011111
00111101000001010000010110110000
10111101011010110010010011110001
10111100000100001011100001111010
00111100001100001000111111001100
00111101010000001100100001101001
00111100111110011110010110111000
10111100100001011111110110001111
10111101001110000110110110111100
10111110001000010111010000000000
00111101111001100001110100010110
