10111101111001111011111111010100
10111101111010101101011011101011
10111110100001010111011111010101
10111101100001101000100111111001
10111101100100100100100000101000
00111101000011100100001110111011
10111101001001100100110010001011
10111101010010111111011101101011
00111100000111001111110100100101
10111110001011101111011010001000
10111110001110001010010101100010
10111110000100000101101000100000
10111110000101100100101100110001
10111101011111001010000110101111
00111110001000110011001000010111
10111100111010101100010000001111
00111101101011110100011000011111
10111110010011000010100010111011
00111101001011011100011011111000
00111101011001011011110100011110
00111101101100111010001110010111
10111110001000010001111100111011
10111101110001111010000101011000
10111101111000110001100111010011
10111101011100100110001100101010
10111110000000000010111111010110
10111110000110011110100101100011
10111011010010100101001000110101
00111110010100111001010100100101
10111011001000001001011011110110
10111101000010000000011110010001
00111110010100111010001101000011
10111101100011010101000011011101
00111110001011010110001100011010
00111101101010011001100101001001
10111101010001101000000000110000
10111101100111011100101000100111
10111101001011000111111001001111
00111101010011010011011110010010
00111101111100111101001110010001
00111100100011001000100100011011
10111110001011000001001100100011
00111101000010001011101100000110
10111101000011101101101110111111
00111101011110001000010000011010
10111101111001111110000011111110
00111101101110001100000000011101
00111011100110111101010010011101
10111110010010010011001001000001
00111100110010100110001111110010
00111100011110000110111110111000
10111101110000110001011101100111
10111101001011101011001110110000
10111110010111011011110001000010
00111100101011010000000000001110
00111101111000101011010001001110
10111101101001110110100011011011
00111101111001000001010000101010
00111101000100011001111011001110
10111101001110011011000111111101
10111110000111100100010110110101
00111110011110011000011000010010
10111110001100101110010000100101
10111101100011010100100111100011
00111101100000110110100001100011
00111101010000100111111110000111
10111101101111001110110000111110
00111101000101010111001010110110
10111110000111010111100011101110
00111100111100110111110101111000
10111101000010010101010011011101
10111101100010010001110101101111
10111101101100011001100101010001
10111101110111000000101010100001
00111110000000001011100110110000
10111110000111100000100001010001
00111101111010100010010010100010
10111101010101001110101111100010
10111101000000111000101010000001
10111101100011011011100111111110
10111100110100000111101110101010
10111110001110100000100001100100
10111101010011111101001000101001
00111101100000110100001011011010
10111101010001000101110100110000
10111101110111111101001100100000
00111011011100101011110011001101
10111101111000111110100110111001
00111101111001111101011111100011
10111110000111001010110101100100
10111110000111100001000111000011
00111101011011101111001110100110
00111101100100011100111000000001
00111100101000100111010101100010
10111110001101011110110110111011
00111110000001111100011110011100
00111110000100010011110110010100
10111101110010001100100110111010
00111100101011111111000111010100
10111101100100011100010011100000
10111101101011001000100111110100
10111100011000100111011001100101
10111110001011111010101101100000
00111100001001000101010011110011
10111110000000000100011110010110
10111001101111011011110101011000
10111110000110100111100011000100
10111101000000110100011100010011
10111110001101110111011101101001
10111101011111100110001010100110
10111101101110000100010011010100
10111101010100011011001101000010
10111110001101000000011111111111
00111101110000100011000010011000
10111110000101001010100000011100
00111100111000011110100000101110
00111110000000101000101110111011
00111100101111011111010000100000
10111101111010011110001110010111
00111101101011010011101010011010
10111101100101100110010110001000
00111101100000100011011011101110
00111100100110111011101000010010
00111101101011010111101010001100
10111101110100101001101010110110
10111101101111001010111110000001
10111110000101010011000111110111
10111101100110110110111001100100
