10111101011010111000011101111011
10111011110010011001010000101010
10111101101010100101000111011100
00111101000001100011110110010110
10111110000001000101001001111100
00111110010011010111110000000100
10111101001000101010111000000111
10111101011111101111011101111000
10111011110101100101010001000100
00111101100010110011001111110111
00111110000000111001100000001110
00111101011110100000100101011011
10111110001110111010000100000100
10111110000111010101100010011000
10111101111111000100110111100100
10111100000110110001100010011101
10111110000011101111100000101001
10111110001000111000101001011011
10111110010001001011111101100000
10111110000010100100010100110101
10111101001001100001001010001011
10111011001011010010110111101010
00111100001011001011110110011000
00111101110110000010111100101110
00111101100011011011000110110011
10111110010111010101000111111011
00111101100000100101100011010001
10111100110111010111100110111010
10111100001011100100110101101011
10111101101001101001001100001110
00111110000000010011101010011100
10111101101111001110111100111000
10111101110101011001110010100010
00111101000011001011001001100001
00111101110000011001000000011000
10111101100110010001101110011100
10111100100000110101010100000011
00111011110111110101001000111101
00111101000010010011110110001011
10111110001111111101110000010011
00111101101101001001100111101011
00111100101100110110011110100101
10111101100101111101010011001011
10111101010010010111101101111001
10111101000110100000111011000110
10111100111000110011101111110011
10111110100001011010100100101010
00111110000101010011101000001110
10111101101110011010001110100011
00111101110110100101100000001001
10111101001110001000111001000101
10111100100101100010001100100011
00111101010011000110000110011011
10111110000100010111011000010011
10111011101000100011010110111011
10111101101110101011111010001111
00111101010100101111100000001110
00111110001101011111011111000011
10111101101010111110000011010000
10111100110010010100111001100100
00111101100011111010100110000000
10111110000100111011100101111011
10111110010110010100001010111000
10111101111101110101110001111101
10111101110001111010101011100100
10111110011010011111001000000010
10111011101110101011101011111000
00111110001111011000000000000010
00111100111110101001010011001100
10111101111010011011101101000010
10111101101100001101110110001000
00111101101001010010001000011010
10111101101000000110110011000110
10111100111001010010010111110101
10111110001101011110111001111011
10111101010111110000011011001011
00111101010001010101100010010010
10111100100011100110000101010000
10111101010100111001010001101011
00111110000010001011011001110111
10111010010110000101110011101100
00111101000000011000110001101101
00111100011110011001100110010100
00111101100001000001010101111000
00111110001111111101011000010010
10111110001100100101000001010101
10111100001101001011000100100111
10111101100100111100001000011011
10111110001001011101100010001111
10111100010100010001000101110110
10111101011100000100010001010110
10111101001111010010010100010000
00111101110101011100011001011110
10111101101011101101001110100111
00111100101110110000001000000010
10111110011011010111110111000001
10111101101101000101110000001111
10111110000010011011000110110101
00111110000000101011100011011011
10111100001001001111011100011101
10111101101011110101100101101001
10111101010100000000110001100011
00111100100000101110100011010110
00111110001000011001010001011100
00111101100101011000001100001100
00111101100100100101100001011000
00111110000011110110010110011110
10111101010111100100001111110101
10111101011101111110101000011001
10111101010101110110000111111001
10111110001111100100110111010011
10111101111000110110010110000001
00111101000110111011011011010000
10111110100011000010101111101100
00111110001010011111101000110000
00111110000111010111100001100000
10111110001000001101101100101010
10111101011100110000011101110011
10111101111001000010101111000000
10111110011011100010110011101011
00111101101001000100110000001111
10111110011001111001001001101111
10111110000110101011111100100101
00111100001101110100110000000001
00111101100101101001111010100000
10111101110111111101111011011010
10111101100010111100010100011011
10111110011000100101001100000111
