10111101111110100000110011001001
00111100010001000010000011010110
10111101110001000100000100001010
00111110001101100101010101100100
00111110010101111011100000000110
10111011100101001100001101111011
10111010000110111010011101011010
10111101011011111100001101110000
10111100110111111110000001110010
00111100101101001101110101100110
10111110000001001110100000101100
10111101111100001001100011100011
00111101011100100011010001010100
10111110001110100111110000010101
10111101100000011101000101100001
00111110010000101011101010010101
00111101010011110001011001001011
00111101101101010000111000100001
10111101100110111000010111100100
00111100010101000111111111110011
10111110000100011010111011011011
10111101100101011111000111101001
00111101010011001101000101001011
10111101011100001001111011000011
00111100111000001110010111111011
10111101001000000101101010110001
00111100000110001000010011011110
10111101010110010001101011111010
10111110000011100001011100110001
10111110101100001011111100110111
00111101100011101101101101101001
00111101110111101011110110000001
00111110010000101101001010000001
10111100101000101001001100000001
10111101110110000100011110110011
10111101100001000111111111101110
00111100011001011111010110011010
10111101101101000010000001111010
10111011111110101000010110011011
00111110000001111100100000010111
00111101101000100111001010010010
10111110010010110101010011111001
00111110001111010011101101000011
00111101111000111111111010011001
10111110001001011010011110100010
10111011110011010001101110110110
10111101001110000111110010111010
00111100010000110101010110000111
10111101010100111111000011001011
10111101100101101111000011010011
10111110100101110011111110000011
10111110001010000101111010010010
10111100010010101010110110100000
00111100011101010001101100001101
10111101111100010111011110101111
10111011100011101111010100100110
00111101101000110100111111100100
10111101100111101110001110100111
10111101000110111010101001000110
10111110000101111010001001011110
00111110000111010000001101001011
00111110001101000111001100100000
10111101001110000000000110010010
10111101110100100010010000100101
10111101001010101101111000100110
10111101101001001011110100101011
00111101110000010110010010101010
00111101011101000010110110010010
00111110000011001101001001111001
10111110000111001111011001001011
10111101100010010010111011001000
10111101111000110011110000100000
10111101100000001000100010100010
10111110000000100010011101010110
00111101101101111110101110011001
00111101100000101001111011011010
00111101101110100101110100010100
00111110000111110001011110000110
00111101011001101010110111000110
00111101101110101000000010101111
00111110010011111010000001011000
00111101011001010110110111111111
10111110010001000111111110101011
10111101110000010101001011001111
00111101000011101110000110111000
10111101100010000011011011011011
00111101001111100111111111000011
00111101100000000101111100001101
10111101101111000001110110111101
00111100000101011011001111110100
10111110001011100110010001111100
00111101011010001000100011010001
10111101000101100101100011000010
00111100010110101111011111010110
10111101110010011001011010110111
00111101001100101111001000010110
10111110000111001101010001000100
00111101010101101001001101111100
10111110100001001110100110000010
10111101111001111000001011001010
00111100011010000010100111011101
10111101000100100101100011011111
00111101011011000011101001100110
10111110011111111010111100000110
10111101110110110001010100001000
10111110001000001101111111001100
10111101100110111111100001011100
00111110000101111111010001101001
00111100010010011000000100111010
00111101001100011110110011100111
10111101111101000001000100100000
10111110000101011111000011100000
00111011100111100110100011000110
00111101010110101100010000111000
00111110010100010011111010000101
00111101010101010000001101000001
00111100010100000110111111011100
00111100110100000110011111111000
00111101000110100001010110011101
10111101101001100001011010110011
10111110001000110011110001000001
00111100010111001100111110100111
00111101001001101100000000000100
10111101111000001111111011100011
10111110011111111101001001100000
10111101111011100000001011111011
10111101000100000110101100100100
10111101011110001111110001100001
