10111101010010000100111001111000
10111101110100100100100010011001
00111110000110011110000011100010
00111101001110000101001110010000
10111101110111000100100010000001
00111110001101011101010111100101
00111101001001100011010100101000
00111010111101010110110111010100
00111011101010001011011000011011
10111110000101001101111100010111
00111011110010010111100001100000
10111101100100110011001101010000
10111101101101110000101110110001
10111110000010100010000001100001
00111110001010101111101001000101
10111101110010001000101110011000
10111110000010111001111010001111
00111100111000011100000101010011
00111101101111110111000011110010
10111110010011000101001011010111
10111110001100000111110110011001
10111101101001101110111001001101
10111101010001111001011101000111
10111101100100000100100001110110
10111110010110100010000011110010
10111101010110011111010000110111
10111101111000011010000000100110
00111100011100100100001000000010
10111101100101101110001100011111
10111110001011011001011111101100
10111100010101000010110001100011
10111011100110110111001111110000
10111101011000110011010000101101
00111011111000010000000010111010
10111101010001000111000100010001
00111101111101010011011101011101
00111011110111110101000110101001
10111110101010011001110110000011
10111101111110001111011000111010
10111101101111100111111010100101
00111110010011011100110110010110
10111100110110100101110111001100
10111100100010101000111110100110
10111101010100100111100001100011
10111100110110110101100111000000
10111101110011011101110100001011
10111110010101101011100110000010
10111110001100001001000111001011
10111101111101010010011011010111
10111101101100110110011001110001
10111110010001000010100011110011
10111101111111010010000001111010
00111101011000010111110001001011
00111101101111010101000101011011
10111110000111001100101011101010
00111101111000001010010000011100
10111101011011110100111110111010
00111101111010010001111111101111
00111101100111111010100111101111
10111101110001011101011100101001
00111110000011001001110000011100
10111101001100000111100011101010
10111110010000000000011100110011
00111101010111010100011110001011
00111101100111001011101100101011
10111110001001001011110100000010
10111101111010010001000111011000
10111101100000101000011010100101
10111110001111000101100110000010
00111101100101100001000000000101
00111101101011000110011111000000
00111101010100110111111100110001
10111101001000101111101010101000
00111101110010010001100000110101
10111011101010100101010010001010
00111101111100101001001101110011
10111101111001101111001111001100
10111110000011100101110110110110
10111110101100100101110010000001
10111101000011010001011111010111
00111101010011001100100011011000
00111101111101010111100011100110
00111100001100001111010010100100
00111100010100101100010100011010
00111101101100010010110011110010
10111110001110111101000110000011
00111101101011001011110001010100
00111100010111001110111110000110
10111110100011111010011101110110
00111101110000000100011100000110
00111101101110101111001111000010
00111110000111110111010100000011
10111110001101001000111110111111
00111110000000000000111101111110
00111010001111000110101000101011
00111011111100010100101000101000
10111100010001011010000100001011
10111101000010100110010011001001
10111100110111000000100100101011
10111011111010110111011100000100
00111100110000010001100000101110
00111101100000100110011000000100
10111101110110000011100101110110
10111011101000110101001100111011
10111101100011111111011111110011
00111101111110010011101110100101
00111100110100100001100001011101
00111100110010111010110111011001
10111110100101000011100111101111
10111100110011111110100001100010
00111110000111010000111011100011
10111101100101111100111101011001
10111101111100100111101011010000
10111011111111110010101101011000
00111110000110000010000000011011
10111101011000000000000111010001
00111100111101010011111110011101
10111101000010101101000100001111
00111110000110100101011000001010
00111101010000001001110000111101
10111101001101100111010101110111
10111110001110100110111100111011
00111101011011100101011110101001
00111101101101101001001000011110
10111110001110010111101101010001
00111110001100110100001000100111
10111101011101100101001100101000
00111100111001100100010010010111
