10111100111111111001010011001110
00111101101001010100111010010010
00111101100000010000010010000010
10111110010111111111111011111011
10111011101000000100001001100111
00111110000010010110101001000101
00111100101011000100111001110100
10111101010011011101000000110110
00111101000101100111001111110101
10111101101001110011100000011101
10111101010110011011110000110000
00111101101010001001000010110100
00111101001010101000111101001111
00111101111000101110101011011110
10111110100010000110001000100110
00111101100011111011101011101101
00111101010001110011110010011000
10111101010111111110101111111111
00111101001011011010100000110100
00111110011110000111111000001010
10111110010010010011011011100101
10111110010000011000011001010100
10111110010110011011010011001101
00111101000011101111000000001110
10111101011101101001001111111110
10111100100011001101001110111000
10111101101010001101111000111100
10111100110110100010101111010101
10111101001011011001001011001001
10111110000110011101000010001011
00111101001000010010110100011011
10111110001101101011011111000001
00111101111011000101100000110111
10111110001110101011000000111111
00111101011101010001010010000001
10111101010110111001101011001110
10111101111010010000010110101010
00111110000100001110000010010011
00111101101010010001011000010100
10111101010011010010110010101001
00111101011111010111010110010001
10111100010110110110000101110100
00111101111101110001001111101001
00111101110110001000011110111000
00111100100101001011100111000010
10111101011100110011000000010011
00111100101010100000100011110011
00111101101111111101001010111011
10111101100100001011001110000000
10111100111110001001100100111010
10111101111010100110001000111011
10111110001100101111000110110101
10111101100010101100010110001011
00111101101110100001001110000010
00111110100000111110101110001100
10111101101111110000001110011111
10111100011011101010110000100000
00111011001010110100011111010111
00111101001001100101110011111010
10111110001001011110011100001010
10111110000111010011010110000001
10111101110010110000100000000011
10111110100010101010001001001100
00111101101011010001011110001001
00111110000010001101100100001000
00111101110011010000000001000110
10111011101000100000000010011100
10111110000110101111001010101110
00111101110100000011101011010000
00111100010011101010001011100100
10111101010101001110101111110000
10111101100011010001101110010100
00111101100101010111111011100000
10111011110100000101110100001010
00111101100101100101101000000000
10111011001001100111101000011010
10111110010010000010110100011101
00111100101100110000001001101111
00111101110010101110010111000010
10111101100010101001001001011001
10111110001001111101011111101010
00111100001000110001100001001101
00111101111011001100011110101101
10111101101001011001001100100001
10111110011011111111101000010001
10111101111111011000000001000000
10111101100100110110011110011000
00111101010001101100000000110100
10111010111000100011010000111101
00111101111111101000000001000001
00111100001101101001111101001110
10111101100100001101000001110000
10111110001100110001001101101101
00111101110100100101100000111011
10111110001001100011011011001101
10111101110111111000101111101001
10111101100000001001011011001011
00111101011110100011010011000100
10111101000101001110101001010111
10111100010110110010100110011001
00111101010111010110111000111100
00111101111011101111000101101111
00111110000110000111001101110010
00111110010000011011110100100011
00111110000101001101110001101101
10111110100001110100011010010111
10111110010001000110010111000101
00111101000000101111100001100011
10111110010100001100111111101110
00111110011000001001011001101011
00111101000010001101100010101000
00111100111011101111110010011100
10111110000111000001001001110001
10111101101110101111000010100000
10111110000111101001000110110010
10111110101011000001000010110101
10111011001010110101000100110100
00111101100001001001011001000110
10111110010011011100000111111100
10111110011000111100011111111101
10111100101101110010101011111010
10111101110111010001011011100000
10111100110111101010100100000010
00111100001001001010100001110011
10111101101111100011011010000010
10111101001001101101010111110110
10111101010100000000100111100010
00111100101001010111111001000100
