10111110001100111000101111000001
10111101001001001010100010010101
00111001110001100111000011110010
00111101101110111001100000110110
00111011111010011011101100110101
00111101011000011101011100101010
10111101010011100101110110011011
00111100101101010100010111010001
10111110001011011101110110111101
10111110100000111010000111001001
10111100011010100101011110111110
10111101011001100011000111011100
10111101100011011001100011110001
10111110000101000101111001011101
00111101000001010010010110011010
00111101100010100001000110111110
10111101110011000110000111110110
10111101111110000101000110001001
10111101111001100101110110011001
10111101110100111001010101100101
10111110010011101111000000011100
00111100000101110111011110110001
00111011110110111001101111011011
10111110000001001101000100001100
10111110011111100001010101011110
10111011101011010100110000100000
10111110010001010001010010100011
10111110001110011101101010011111
00111100110111101011001110000010
10111110000011001100100100001110
10111110001100110101110011100001
10111101011101000011011111011000
10111101110110110011111100000110
00111101101011001010111111101001
00111101001101100000110111110101
10111110001000100111000100100000
10111110010011000110011000101010
00111110000100010011100100110000
00111110000100010101111011000111
10111101010001010000011100000110
10111110010011111000001011101010
10111101011101111111101110111011
10111110000110000100100011001001
00111110001001110110110101010100
10111110010010001100101001100000
10111110100001010011110100101100
10111101100101100011111100111010
00111101011010110101011110100110
10111110000100001111000110001110
00111011110010111100101000000101
10111101101100100100000000000110
10111101010111100101000010010111
00111101001110011100011001111100
10111101001001010010001000111100
00111101010011000011000010110000
10111110000100001001011101001110
10111101111111011010000100101100
10111100101110010100110111100001
10111101101111110010000111000101
10111011011111111111110000111110
10111101101010100000111000011010
10111011111001110011111000101111
10111110001011010001111100000110
10111101000100100001100110001000
10111110001011001010011110100010
10111110001001001010011011101000
10111100101101000000001011011010
00111101110001110010000000101110
10111110000011101111001111100100
10111110001101011100100100110100
10111101010111001010011110100111
00111101101101110000101110000101
10111110100000010010000010000011
00111101011110110110111010010111
10111110010001111000100110101010
00111101100101010011001111001101
00111101100110111111001000011001
10111101011000100101000010101101
00111011001011110110010111001110
00111101101011000010000110010010
10111100000110100100101001100010
10111110000011110011101011110110
10111110000111111011000101100110
00111101100111110011110100000000
00111101011100001110110011111101
10111101111010101000001000101001
00111100011010100101110010111101
10111110001100110110010011111111
10111100100000000100001010011110
00111010010111011011010000111101
00111010110110000010001111111000
10111101111111011100101001001100
00111101101011100010101010011110
10111110000000101001111100110101
10111101010110000010011110100110
10111100100101111011001101110100
10111101001100010010100111010101
00111101110100001010011101101010
10111110000110110101010011110110
00111101101111001000001111001011
00111110000100100100111010011001
00111101110111100110111001010100
10111101101001000110110010001101
10111101110110100111100100000011
10111101100111101100111110010111
00111101100011101111100110001001
00111110000110111111010110011111
10111101001011000001010010000001
10111110001101010110101110000010
10111101001101011010010110010111
00111100010001001110101000101000
00111100110100001001001011100010
10111101100111011001010000100000
00111101001000101010100000000100
10111110000101011101111110100001
10111101011001010111110000000111
00111100001100010000000111001100
10111101010111110001111101111100
10111101110010001000111010111001
10111101000011001110011110011101
10111110001011011010010100101100
10111101010100101011111101001110
10111101010110110101001010101001
00111100101101010110001011101001
10111110010110010100101110111001
10111110000111101111000010011101
10111110100001010011001111001110
00111101010000011101100100001000
