00111101100000111110111000101000
00111110000001000101001011100011
00111101100000100101101001011000
10111100100111110111001100100101
00111101110100110011100111110111
10111101010110011011101101101110
10111101101111100100111111011000
00111101100000100101111010001001
00111101100011011010000100011100
00111101101110110011110001101011
10111011101000110010100011111011
00111101010000110010000000111110
10111110001100000010001111010110
00111110000001101100001101011001
10111101111001110101010111010101
00111101100001010000111001010100
10111100011100010111010010100000
00111101000100110100110110101101
00111101101010101110101100100001
00111100111010100000001000011110
00111110000110000110101101001110
00111100101111010101100100011000
00111101000100101010111101100110
00111110000000011100110110011100
10111101001111100011101100111101
00111011110100011101110000100111
00111101101101011100010110111010
00111110011001000001001111111001
00111101110001011000110110011101
00111101111000001110011100000000
00111101100110101100111000011111
00111101110100011011101000101101
10111110000101010100100010100101
10111110000011001111000010011011
00111101101001101100101111111100
00111100110110111101010010001110
00111101001100111001001000110010
00111110001111111001110000011101
10111010111010001001011101010011
10111110001000010010000111000011
00111001100010110101111101010010
10111101000100001010010001000001
10111110001100110110001100000000
00111110010010010011001111111011
10111101110010100110110100000110
00111101100010001101011011101100
00111101110100100101110000110111
10111101000010000011001000000111
10111101011100011110111110101110
00111101100101000000011110101110
00111101110010010111000100000101
00111101101100100010001010001001
00111100110110101111001000110000
00111101001100001010000011100111
10111110001101001001011110011000
00111101110011011001100011110011
10111011101110000000001100000101
10111110010010001011100110110010
00111101110100010111001110101110
00111101000101100010000000111101
10111100101100111101000000001100
10111110000000110011000111100010
10111101100100000101000100100101
00111101110100101000101001000011
10111101100001011101110100010111
10111100001010110110011110010001
00111110000101001111101101010011
00111110010100010111011010101100
00111101001001011100100111110011
00111101111111010111111000011101
00111110010110100110100000110001
00111101101100001010101101010010
10111101110011001011000000000010
10111101110110111101111100011000
00111101011010000100111001001100
00111101100111011001001110010010
00111101101010011000111001111110
00111101111110010111101011010011
10111101000101010011110100100100
10111110001001111100010101110010
00111100100001010111101110000110
00111101100110000100111101110111
00111101101000101110100110011100
10111101000111101011111010100100
10111110010100010010010100100001
00111101010101001100011100001111
00111101100001101000100100000000
00111101011001110111110100101101
00111110001010010001011001011001
00111101101000011010100100101111
00111100011110010101011110011000
00111110011101001000001001000001
10111101010000110001011100110001
10111101010110011010011100011010
10111110001101001001001101100001
10111100111010111010010111101000
10111101110001000101010001010100
00111100100100011110100100010001
10111101010010011011101101111000
10111110000001000100110010011011
10111100000000000100110010111110
00111101001101001101100011101011
00111101011101100011110100100010
10111110000111011110011011011111
10111101010010011011001101110111
00111101100011010110111111001100
00111010100011110001011111110011
10111101010101000111110011000001
00111101001001011011000111100011
10111110000010010101110110111101
00111110001101101011110111110000
00111101111010111011001110101011
00111101010010110100111101011110
10111010101100011010101111110100
00111101000001110110011110001010
10111101111111110101010101111000
10111110000101100000111110110000
10111100110010011101111001000011
10111110001000010001011111011110
00111110000101000001101101011011
10111101000100000011010000110100
10111101101010001111110111000111
10111101010100111001010100000110
10111101111010001010011001110111
00111101111100011001101010001100
00111101010001011010000110111101
00111101101101000000010011100111
10111101001001100010011000110100
