10111110000111011101100101010001
10111110100111011101001111010011
00111101100000100111000011011001
10111101111111100010010011011100
00111101110011001011000011111110
00111110010010101001101011011110
10111101011101101000110101001101
10111101100000011101001100101001
00111101101110001010110000100011
10111101111000000010110010000101
10111110010110001101010110001011
10111101010000011001001111100101
10111101001000000110010001111100
00111110000010010110111101110100
00111100111111111001011111101111
00111100010101001000011011010111
10111101110100001000000011110000
10111101011000100001011000011111
10111110001000110111101001100111
00111101001001000010011100010000
10111110000001101110010001010011
10111110010000011001000101010001
10111101000111011001101100100100
00111101110110111101011001110011
00111110011010000100001011000100
10111101000011000010100001100001
10111101101011011001011000111010
00111101100010000001110100000001
10111101111010001000010110111011
10111101110111010001110110000001
00111101000010100111100111100101
00111101000101101011010100011110
00111011101001101101001101010101
10111100101101110000011000111011
10111110011101100001100111111010
10111100111011100111011000101110
00111100011010010010100110100000
10111101110110001001100010001100
10111011011001011011111110111101
00111101101100101001001011110011
10111101111010110001110011101010
10111100111000110011001100010101
00111101101010101000000011111000
00111110001110000011011000100110
10111101110010010011111110100010
10111101010101111000000110100011
10111101111001100100011010001100
00111101111000001001101101110111
00111100101100110110100001100101
00111110000111010011110100110000
00111101100011000110001111101010
00111101110100011000010010011100
10111110001000011101001000111001
10111110001110011011110000111011
10111101110011001011100100001001
10111101001001000111010100000001
00111100110011000100000110011111
10111101110011100001011100110111
00111101011010001001010110010111
00111101011111010010000101000101
10111101100101011011111011110010
10111101100000001010100100110010
10111100101110011110110011111101
10111110010001001100110010101000
10111101111001000000110100000100
10111101111100000101111000010010
10111110010010011001111110010111
00111110001101111110111010111110
00111100000011100100111000100001
00111101101100110011000100001001
00111101110110010100101111110111
00111110001111010001101011000101
00111101110001000010011101011001
00111101001100011000010111000101
10111110001111110001000000110110
00111110010001101100111110101001
00111100101110011000111011011100
10111101010111110010001001010010
00111101101101001100110000101111
00111101111111101100100000011001
00111100011111100100001101111011
00111101100100101101001010110001
10111110000010111100000000011101
10111101110100100101110001000010
10111101011001111101010101101000
10111101101110101110001010011101
00111101101011101101110011000011
10111110010000110010101100011000
10111110010011000010100010100010
00111101100000011110100101101110
00111100110001000010010111001000
00111110000110010010011111010011
10111110011111100101101101011011
10111010110110011010001000110010
00111110000110101100101000101000
10111100101101010011110111100100
00111011010011001011101111000101
00111101100011101010100000100101
00111100111111010101000101101011
00111101111001010000101111000101
00111011110001011100100001011100
10111101110001100111111101111000
10111110000101101010100011000111
10111110010110010000011101100100
10111101110100100100110101110101
10111100100110101110010010110001
00111101111001011010000010111010
10111110000110011010001100111001
00111110000010110001100010100011
10111101101000010010010000100010
00111101010010001111111000101001
00111101010110000100011000100110
10111101110011010100101001011111
10111101101111101100001000010010
00111101101000101000011111011010
10111101110010110001011001001011
10111110001111010101111110100010
10111100000001110011111100011110
10111110001110011001001100100101
00111110010001001110111011010110
00111101101010110100101111000001
10111100100100010010100101000110
10111101100001100001100110101111
00111100101000001011001010100111
10111101001111101001100011011000
10111110000000011100101110100001
10111110100000001001110000000110
10111110010111001011100110001011
