00111101100110010001101010011110
10111101001010010101010101110011
00111101100110110101111011100011
10111110001000011100110000010000
00111101101001101011001001110110
10111100101100110010110101010010
10111100111010110110010101011000
10111110001110010110101010011111
10111100101000101010111100110101
10111100110010101001111110100010
10111101111001000011100011100111
10111101101000110110010101110111
10111100100011100100111001001100
00111100111110100110111110001001
10111110010010101011100010001111
00111101011010001000001010000000
10111011111101110100010001001111
10111101001001000010000011101001
00111100100100011001000010111000
10111101110111110111011100110110
10111100011101111101011001110010
10111110001011001000110010111101
00111001100011011001001111100001
10111101110101110101101111001001
00111110001100011111000011011110
10111100100111101010010000110111
10111100001101100111001111010101
10111101011110111101110100001000
10111101110001011000100001101000
10111110100001000111111100000011
00111101001111110011111101010001
00111101100000000010100101101000
00111101100100000000011010010001
00111110100010000001110100111000
10111110010110001100101011010010
00111101101111110001111011111110
10111101111001001111111101110000
10111110000100000101101011111111
10111110001100000011011001000110
10111100101001110000110010101100
10111101011010000000011001111000
10111101110110000011101000101111
00111101100001000111001010101000
10111101001001100111111110110011
00111101101001110100011010000010
00111101010001011110000101000101
10111100110010010000111011000010
10111100011010000000111110111001
10111101100001000101111010101111
10111101010101001100000111000111
00111101100011101111000111101001
10111110001100011100000010001111
00111101100011000010011101100101
10111101101100110110010010111010
10111110010000100111000100001100
00111101100000100101111000000010
00111100011001000101010100110011
00111101110100111100110100010100
10111110000011001011101000011011
00111101111100010100110110011111
10111101111000110101111110100101
10111011100001011101100111110100
10111100101000000111110111111111
00111100101101001100001111100100
10111101000001010110100101100111
10111101101000110101001011111111
00111101110001101110100010011011
00111110011001010111111000110100
10111110000011001011001010101011
10111100100110000000100010000101
10111011110000000111100010001110
10111110000001001000111011010001
10111101100111000010100110110101
00111101000100110000100011001000
10111101111110110010101001110110
10111100101111100100011101100100
10111101110010011110010001111010
10111101101010111100001011111101
10111100100111100000110111010000
00111100101101011011011000111100
00111101011111111010010101010000
00111101110110111111110000000001
10111110011101000010100010010001
00111100011000011010000010110101
10111101101010110100011001111110
10111110011110011001011001000100
10111110001010110011110111101010
00111101001011111011101001111100
10111101110000100101001000101101
00111101110000010011000111010010
10111110010001110101010011100011
00111101100011010110001110011010
10111110011011011011001100011110
10111100011000100000000001111101
10111100101101100111010100001001
00111101011111111001010110001011
00111101011100100011100010011000
00111101010111001101111111001010
10111110010011101111110011111001
10111110000111000000010001111111
10111101110110100110000001110110
00111101101001001000110011111110
10111011010010011011010010011101
10111100101000010101001010011000
00111101110011011110111101011000
10111110000010111000100110101000
10111101100101100111000101011111
10111110010010100000001001111010
10111101101101011110011111000111
00111110001110010011001110111011
00111101101001100111000010001011
10111101101011010110100100111101
10111101001011010110000011110011
10111101110011000111110011011001
00111110001101110010101101001011
00111101101000100101000100110010
10111110001011010110111011000101
00111100111011010111100110000010
10111100101111001110011111111100
10111110000000101111100010011110
10111101111100001111110000010111
00111100010111100011110100001111
10111101001000011000000011111100
00111101101001111001001110100010
00111101100010110110001010000010
10111110100101001000001101111111
10111110000011101101001100111000
00111100100011001101111001100101
