10111110000110000000010111011000
10111101010101110000010100011100
00111100011011001110100101010011
10111101100000011110010000011100
10111101110111000101011110111110
10111011101111010001111110001111
10111101100010011101000011100001
00111101000111000111100010111100
00111100000011001110100100110010
00111110000110011100100101011001
10111110010010101001111101000001
10111100111101100111010010010100
00111100111010001101001001111011
10111110000001101010100101001101
10111100011000000000010010111001
00111101001111001001101101110000
10111110011001001111111011111110
10111101111111001101010010101001
00111110001110101011101000011010
00111101101111101110100111111011
00111101101110001011111001110111
10111101110001011010001011111100
10111101110110000011110110010011
10111110001000010111110000000001
10111110000011001000011111001000
10111101111100011111001001101100
10111100101011101100000001100001
00111101110000100111010001100011
10111101111001011010100001100010
10111110100011011100110110100100
00111101100011100010100110100000
00111101100010100101000100111001
00111101100000001000000010010110
10111110001110001101001100010111
10111011110100111011101110110000
10111110100111001010011100100010
00111101100101110111000011011001
10111101110001010001110110101001
00111101111000010101111011101010
00111101101000101110110001000100
10111100010010000111011011111101
00111110000000001110110000000010
00111101110111111101000010000000
00111110101010000101110010000001
00111110000101110101001101100000
00111101111100010000011101111000
00111101110000100011011100011100
10111101011101011100110101110000
10111100101010000010111010100110
00111100111001101101111111110000
10111100010100111101111001100010
10111100111111110101010001101000
00111110001100011101110101010100
00111101111000000010111011100011
10111011110010100010011101101000
10111101111011000000111010111100
00111100110000101011101001000100
00111101011110101100100000110011
10111110001111110010111100010011
00111100110010011100111011100101
00111101100110001010000100010010
10111101111011010001101110100010
10111101011110011111110011010001
00111101100101010011001011101100
00111100011011111010110000111001
10111110000011111001100111010110
00111110010011011000010001101000
00111101000011010101010001011001
10111101100101010000011001100111
10111101111110100011100111011001
10111010110110001001101100011010
00111100101111101000110001010100
00111101101010010100001111011010
10111101110001011001100010100000
10111101101101110100000000100010
00111101111010100111001111011011
10111110010000001000110011101100
10111101110101010101101010011010
10111101110011100010001100111001
10111101101010011000110011100000
10111101111001011110010001010011
00111110000111001110111000000011
10111101101000110101011010101111
10111101000101111011100110111100
00111101000000110001101000010000
10111011010001010111010000010111
10111110011110011100001111001111
10111101001001011011011001111110
00111101000110100000001100000010
10111100101011010100100010100111
10111110000100111011000100111110
10111110001111101010110111110001
10111110010010000100010010111010
00111101100101000100100110110100
10111101101100001000110001000111
00111101000101000001010011010010
00111110001011111111110110101111
10111101111101001010000000110010
10111110010000110001001011110001
10111101101000001010100011100000
10111110000001010011010100111001
10111110001011101011100011101000
10111101010001011110010101111010
10111110010111001010110101010001
00111101100000100101011110101100
10111101110000110100110101111001
00111101110101000000000011011111
00111011111011001100010100001101
10111011001110010001011011110110
10111110001000001011110001101110
10111101100010011101001111111111
10111101011010100001010110001010
10111101110100010110001000100011
10111110010011111101011010001110
00111110000100100000110010000101
00111100000111011100011001011111
10111101101000000010011110010101
00111110001001010101111000001101
00111101100100010011011011101110
10111101100110101111000010110001
10111110010100001011101100111110
00111011100100110010001100001010
00111100110011110100111010110011
10111110000000100100010101111100
10111110001011101110101101110111
10111110001111110010011010101011
10111101110011011011011101111010
00111110010001011010100101101111
