10111011000101110010101110001010
00111101100110010111100011000110
10111101100010000000101001000111
00111101100000000111110100000011
10111101100110001100100111001111
10111100011011000111100110110010
00111101110000001101110110011001
10111110001000101001111111100100
10111110010000110011110010100011
10111110011101110101001000010000
00111101100011111111011111011111
00111101000110011001101010111111
00111101110001100111000010001001
10111101110101011010110001110100
00111101101000001010001010101111
10111101001010001011110101010110
10111101101100110100110100011010
10111110000111010010111100011111
10111101100101110001100100101011
00111110010111000001100010001010
10111101110000011100100000010100
10111101001110010100110001110100
10111100110101100001100000011110
10111110001111011011000110011001
00111100011000100100010101011011
10111110010000000111110101001011
10111100111100111110101100111001
10111100001100100100100111111111
00111110001001001000011110110111
00111101101001101110000101001101
00111011111101110001011001100101
00111101001101000110100010011100
10111110000000001100101001011011
10111101001111111110111111000110
10111101110001011110000011111100
00111101111011011000000101001010
00111100001111101110010010000010
10111110000110101101011011100010
00111101100001111100001111110001
00111101110110101101011011111110
00111100101101101001000000101100
00111100110100111110010010111100
10111101100001010011101000011011
10111101110001100001111101100100
00111101010110111100110110100011
10111101011011011100111001110101
00111101100111101001110111001001
10111101100111010110111011100010
00111110000111110000001110111110
10111100101110000111111110001100
00111101100001001011010010010111
10111101110000111101011111101010
10111101001001101001111100100010
10111101011101010001100000011111
00111101000111111011011011000010
00111101011011000111001101100100
00111101000111011100110001101100
10111011111100110010111011111011
00111101100111101101001110110111
00111110001001011111001001100100
10111101010001001110010110110010
10111110000001001100110011001101
10111110010010101100101111100110
00111100110001101101000001001110
00111110001001110111110100010001
00111100110010000001111110101110
00111101101011011100001010101001
10111110010010010100111010101001
10111110000110111110000011010011
00111101011111000100101000000001
10111101001101000010110100111011
10111110010011001011000011100001
10111101101000100111011001111111
00111011011000101111001010011111
00111110100000100010011101101000
00111110010100001111010000011101
10111101001011010011011101001011
00111100000001011101010011111101
10111110001001001111001000100101
10111101111001101101001110101111
10111110000010100100101111100010
00111101011100011010001111111111
10111101001010001010100000111011
10111110001000010010100011010001
10111101100101111000100110010000
10111101111000011100111110011101
10111110000011110110010100101110
10111100111010000110111011010010
00111100001010010010011110111000
10111110010111010001101101011010
00111101011011001101111010010101
10111100110001101111101000110101
00111100001110011110100111001010
00111110000100100000100000001001
00111110000010100100111110010100
00111100001111000010110000010001
00111110000000000000111110110011
10111110010101001010110100100010
00111101100010111110100100100111
10111101101011001000110011101000
00111101111100011011100100000100
00111101001110100110100110100000
10111110001001101110010011111100
00111101110001001000110101100011
00111100100001010010001110111111
10111101111010101001111010101101
00111011000010010110010001001011
10111110011011111001001001011110
00111100101100100000010011011111
10111101001001010100100101111111
00111011000010101110100111010101
10111101011101110100110100101101
00111100100011100011010111101110
10111101100010011000001100000111
10111110001011110011010101000110
00111101110101010100010011001000
10111101111101111101000110011011
00111110010101101101111000001011
10111101101110001110111010011010
10111101101100100110011000110100
10111110000100110111100111011000
10111101001110100110111111010010
10111110001110010010101010101011
10111101001101101111111111111010
00111100011011110111000001101101
10111101010000011101010101011001
00111110000110010100011111101101
00111100001100010010000011101010
