10111101010010111001111001110010
10111110011011010001100101001100
10111110000100001101111101110101
10111101000001110111000011011010
10111110010110101110011010001101
10111110011111110100110110111101
00111101100111110011000011001001
00111110001011010011000110000000
10111101011010000111101101001111
10111110000111000101101100100000
00111011010110101000000100100000
10111110001001010110011001101000
00111101011010101100011000110101
10111110000000011100110000101101
00111100111111000101001011110000
10111101010001100101101000001011
00111101101011011011101110110000
10111110011010000010010111010000
00111110000101111101011110011000
00111101000101010000100111101000
00111110000100111110101000010010
00111101100011011001000001001000
10111110000101101001011000001101
00111100100101110011111000111101
10111101100010011000000110101100
10111101000101001000101111101011
10111110000001010110001110010010
00111101100010100111001111100110
10111100011000000001101000010001
10111110001010000100010001101111
00111100111110000001100110011011
10111101010110110010101001100100
10111101101101111011110001111111
10111101110110111001010001011101
10111110011000101101010110111000
10111110000111111101000001110101
00111110010010000010100101010010
10111101000011010000011111001100
10111101001110111101011110111110
00111110000010001100100001011101
10111101011101011011011010100111
00111110000101001000101010001010
10111110101100001001101001010011
00111101101010110001111010010000
00111101101001111011111111100101
10111110010101010111010001010011
10111110000001101000110100011110
10111110001100010001001000011001
00111110010011110100011000011011
00111110010100110000111010011101
10111101110010111110100011110100
10111100001101011111100110101011
00111011101101110001010110110111
10111101101011111000110111000101
10111011010111001011100111011011
10111101100100111001101001010001
10111110010001100100111011011110
10111110000011011100101100010010
10111101011101100111000100110100
00111110010101010011101010011101
00111101110110000001000111100010
10111100111000100111111110001101
10111101000101110011011010100110
00111101100011011001111010011100
10111100101000001001101111110110
10111110100000101110011001010110
10111100100100101011111110000000
00111100111001110000111011110001
00111101001000110001110011100000
00111100000000111001001000100011
00111101101101010000110001011110
10111101100100111011000100011100
10111110001111011100111110111001
10111110011001011001011010111101
10111101001000101111000011110011
00111101111000110000000001000110
10111110000011001000011000001010
00111101101111111001111110101011
00111110011100111100101111001010
10111101000100111000111100011011
10111101101001001101101011001000
00111011110101110100111101110011
00111110001010100111010101110110
00111011100011101011000001101011
00111101100100100000100001001011
10111101100011010111110010011100
00111101100010101000111000101001
00111100111001011010011101100110
10111011101101110101101100001110
10111101101111001111000011110100
00111101011001100010111101111000
00111011000100110111000101011101
10111101110101000100110001110101
00111101100010001001111001010001
00111101001010011010110001001100
10111101100011010010010110110100
00111101000000011011010000101100
10111101001101111001101000111110
10111110001101110000101001111001
00111101110001011011110000010111
10111110000001111011111111001001
00111101110011100001110011110010
00111101100011101000010111011100
00111100001111000101100011011001
10111101010100010110111010111111
00111100001010100110100100111101
10111110000000010101111110010010
00111101101011010110000000000101
00111101001111100011111100101011
10111100101101000000001001010101
00111101001011000101010101010000
00111101101011111011100101011111
10111101011101001101000101100100
10111101010101111111111100111101
10111110001101110101001110001101
00111101010111111001011100000000
10111101101000011000010110111011
00111101100010111001111111011000
10111101111001011000011001001111
10111110011000111011011001100100
10111110001001101001110001001001
10111110000001001010000111101010
00111101111100010000111110011100
00111101111100110111110111011101
10111101101010011101101100100000
10111110001000101101001100111101
10111100100110010110000000111111
10111100001101001110111001101010
