10111110000111001010000000001011
00111110001101001010111101010010
10111101000110001110110110101100
00111101100000011111001011110001
00111100010001100001101011011100
10111110001100111100111010010000
00111100100100101110000000001100
10111101101010100111010001100100
10111110000010000000111000001011
10111101010011010011010101100001
10111100000010101000000010111110
10111110000111010011101000011110
10111101101101011100000001110010
10111110001010101101011001101111
10111110010101010010001011111011
10111101001110000110011011111000
10111101110010010100011000100110
10111101011011010100011101111111
10111101100000000001001111001000
10111110011001100001010110011000
00111100010100011010001010011001
10111101111110011000110000101110
10111101010100000101000011100011
10111110010010011101000111001010
10111100000101110000000111001010
10111110000100001011111001110100
00111110000101101000101010000100
10111101001001101110110100011101
10111100011100011101101011000101
10111101110011110100011101100000
10111011011100010101010001110001
00111101001001010011101111101100
10111110000010110011001010100001
00111101000111000100010000100100
10111101001111000101100000011011
10111101000100111010001011110010
00111101101100011111111001101001
00111101111001000011111010111111
10111110001011111001011111000111
10111110001100101110000101000011
10111110010111010101001100111100
00111110000001111011100011001001
10111110000011001001000000011100
00111011110110101101100110000011
10111110010010001010000111010100
00111110010010011110001111110100
10111110001001010110001111100001
00111100111110101000110001011000
00111100011000111011001010110101
00111101010111100010001010101001
00111110000101101011100110110100
10111101110001001100101010000011
00111110000111000011010110010110
10111100000011000111110010110000
10111101111111000010100001001110
10111100100100110111000101001111
10111101101011110101001011100100
00111101111100101100011101001011
00111110000001100100000101100110
00110111111110100011100011010111
10111100011111101010000111101010
10111100101001010110011110111000
00111101100011011000010100111010
10111101110011111101100111011110
10111100110100011101001000101101
10111110010010110110101101011001
10111101010011101101001101111010
10111100110000010100001011110100
10111110011011011011010010001001
10111110000011010010001100011100
00111100101110100101101110000000
00111100101110101010001011001100
00111101110100011101100101000010
00111100100111001101110000010010
10111101101011110011111010100101
10111110000001110110110001101111
00111101110001001010011111011111
10111100111010011101100101110010
00111101100010111111010110101111
10111101000110110000010111100011
00111101010011000100011010100001
10111110001011101000100110000010
00111101011110000110001011101110
00111101001101111000110110110111
00111101111000100100010000100101
10111110000110000000000100110100
10111110000000011011110001101101
00111101011011111110001101100100
10111101001011101000010101011000
10111101111011011100101100100110
00111100110001100000010010000110
10111011001001100011000110000100
00111101110011100010001100111101
10111100000110011001100110011100
00111110000101010100101110000101
10111110011111000101100111100101
00111101010110000101001101101110
10111101001010010110011100100101
10111110001011010000000100101000
00111110000010111000010000010011
00111101100000001011011000001001
10111110001011000001001101010011
10111110100000101011000001110011
10111101000000001010010011110101
10111101100110111110101111110111
00111100011100001100001000010010
10111010010010100011011111011101
10111100010010010000100010101000
00111101111010011000011010111001
10111100100011000011011101101101
10111100110000111011001110010110
10111101110000010100111000010111
10111110001010001001001000110011
00111101001111110010001101001100
00111101011000001101111001100110
00111110000011010000101110010001
10111001111011111011101011111011
00111101110010110100101000011000
00111100000111100010110000110111
10111101000010000101010000000110
10111110011001010111010100010100
00111101100000010101110011111000
10111110000010100000011000001110
10111110001110001010111011101000
10111100100010010101010100111110
10111101100000010001101110001100
10111101111000000111100100111100
10111101110001010001011101010010
