10111101111000010010110001110110
10111100111111110000011100011010
00111110001111110010100101101111
10111101100111100011010010111000
10111101100100001110010100110101
10111101111101011000010100110101
10111110011110100010000011000110
10111101101101100001010111100101
00111100101110111101011001101010
00111011100110010000100100100111
00111101111111101110111011000101
10111110000000000011100011010001
00111100001101110001010010010011
10111110011111001011011001101010
00111101111011110001111010000111
00111100000111001011111100111100
10111110000000011000010100000100
00111101110111010110100010011001
10111110010000101110000000100100
00111101001000011010010110000101
00111100010100011001000000011011
00111110000000101011110101011111
00111100111100001101110001000110
00111101110111011011010110010001
10111100100100101010000011100110
00111110010000100110100101101101
00111101011011000110111111100100
10111011101100010000000011101011
00111110000101010001000000000001
00111110001010100010100001110011
00111011110111010101010010000111
00111101001111111101111101111001
00111100001101010111011101010011
00111100001110100101011011101100
10111100110001000100101101001101
00111011100110010110100010111001
10111101011001000010001000101100
00111101101001010101000110110101
10111101100011010101001010111100
10111100101001101110111001000011
10111110001000110011001100000100
10111101100010000110001110100000
10111101111010100110101000100011
10111110001001000000011111000010
00111110000110010111101110110110
00111100101111100111001010000000
10111101100010101001010101010001
10111101100000010011000011010000
10111101011110111011110010101010
10111101100101111110100110111101
00111101000100001110001011111010
00111101110110000000010101001100
00111101001010111100110101111110
10111101011011101000001011100100
10111101001010011110000100011111
00111100101101100010100111000111
00111110000000001111101010111100
00111100001110100100011110110010
10111101001001110010000010110111
10111110001101011100010000100110
00111101011011010001101111111100
10111100101011100010011110111011
10111101100000010011000000000001
10111110010011110101011110111010
10111110000100011100011111001110
10111101011010101010000001100101
10111101110000001011001110011000
00111101100001000010111011010110
10111101111100000001011010110111
10111101101011011000010110111000
00111100110001111001111100111101
00111110010000011011001100101100
10111101001100001100111111111101
10111100100011100111110001110001
00111101100100000110111001100110
00111100100000000001101011101010
00111100101011001100010101000000
10111101000000010101111010110100
00111101100100100001001111001001
10111101110001010011010010101100
10111110010111011011001100011000
10111110000110100100111101010110
10111101110110100101010001111010
10111101110100001110101101000110
00111101111101000101111101010101
00111110000010000011111010101000
00111110010011101000110001100111
10111101111111001010011110100110
10111101111010000100111111000001
00111100100010110010110000110000
00111100111110001100001010100110
10111110001010010110101000110010
10111101110011001101110111000111
00111110000001101010100001101011
10111101101111001010001011011010
00111101000110111100010001010101
10111101101101101111011011110110
10111011001001000010111110011101
00111101100000001100100111000011
00111110000000000010100101110000
10111110000010110100011001100101
00111110010110100100000111110100
00111101011100000000000110100111
00111101100010010101101100100110
10111101111111100101110001101001
10111101111010110110111101000000
10111101000110110111000111010011
10111101110001011010101100100111
10111100101001011001011110011010
10111110010010111110010100011010
10111101111100010101101111101001
00111101101000001101011101001100
10111101100011011111100110001000
10111110100010101110100010110100
10111110100010001111111010000000
10111110000100101010001010001111
00111101111011010011001000001011
00111101001010111100100011001100
10111101000001000100001010110111
00111011110110111010111111101111
10111110011101000010010111110011
10111110010101010110100010010011
10111011111110000111100010100010
00111110000001101001000110110110
10111110000011111101101100010010
10111101110110010101100011011101
10111101010110011011101110001110
00111101001011111011001111011010
