00111101100111101100001011110011
00111101101010110000000100010011
10111101001000000011100101000111
10111100111101010001110000100101
10111100010011100101001000000111
00111100100111010111101010011000
10111101110010001110011101101001
10111100000100001110110000010000
10111110000111001101000001010010
00111101010010111001111001010110
00111110010011011011110111011001
00111101011001110001001011011111
00111100100100111001100110011011
00111110000110001110000100101101
10111101000011100000100010110000
00111110100000000011101001011010
00111101110010001110110111111001
00111100110111010010101100000000
00111110001001110001011110000011
00111101101001010001100100101100
00111101011001010111100010000111
00111101111010010101111100111011
10111101010100010011111010101010
10111100111000011110011101111110
00111110010100100000001011000100
10111101001110010000100001000100
10111101100100101011100011001011
10111101000110111100001101011110
10111100110101111010111111111000
10111101101101010001011000100100
10111100110010000001010001100100
00111101101101100011011111110011
10111011100111110100011100110001
00111100110111000011010101000101
00111110001011111101011100101101
10111101110001101100101011100010
10111101100010101000100011101110
10111101101001111100001110010101
10111101101001110001000100101011
00111110001101110000000100011001
00111100101101101011100111111010
00111100010111001000011001000011
10111101110011000111000001110010
10111101101000000001111010101011
10111110001110010000000001110100
10111110000101111111110000110001
00111110001001001001010111101111
10111100110111100101101110000111
10111101000001010000000111010101
10111110001110111110010101000000
10111101110111110101010001101111
10111101101100010011001100011010
00111110010111011010100100110010
10111110000111000110000011011111
00111110011011100000011100101011
10111101100101011101111000001110
00111100111100110110110010000101
10111101111011101110110100000110
10111101101101110110000001111111
10111101110110111100010101010001
10111110011010001000011010110010
00111101101011101101101010101101
00111101000011010101101100011100
00111110011001111011010101010011
00111110010010011110100000010111
00111101101111001001011010000001
00111100001010110011001111000111
10111101010100011000101101110100
00111101100010110100100010000011
00111101000111011101011100110101
10111101110110101100001111000011
10111101110101111110010010100110
10111101100110101000100011100111
00111101101111110010111000110011
10111110000000111100101001111000
10111101100110101111110001000011
10111101111010110011101101000000
00111101100011111001101010100010
00111101110010011101000011001110
10111101101110000001001111110101
10111101110000101000100110100101
00111101110100001000100000101110
00111110010010010111001011100000
10111101101101110110101110101011
10111101110110010000001000101110
10111101110111000000000111001100
10111101111110101001011011110001
10111101101110101001101010011100
00111110000111001101010001010101
10111101110110100101000101011111
00111101000110101010111101001101
10111110011010101110001000000100
10111101111110000100100111101111
10111101010111100011110100111011
00111101111111111101110110100011
00111101111011111111111001000101
00111110001001000011011101011100
00111101111100000000110100110001
00111101001101101101101110110110
10111101100110001110001101101000
00111100010110101011001100000100
10111101100000010110011001100011
00111110001010110111001100111000
10111101011010100100011111111000
00111101100001110100000100100110
10111101100000001001101011110010
00111101101011010001100100100000
10111101011001110110101100010101
00111101101111110100110110000101
00111101111111100110100111000110
00111101010011100111000100101011
00111110000011001000011011001001
10111110010000011101100001101100
10111101111001111100000100000000
00111101111000100110001110011011
10111110000111001010011011111010
00111100011111010100101100111101
00111101011011000010111101111010
00111101001101010111011101101110
10111100110110101001010000100111
10111101010000110101011000110001
10111101001111001110001000010010
10111101111010011101111111010110
00111100111011101111101110000001
00111100111110111100000010100101
10111100111110100011011001101000
00111110001100100110011111100000
10111110000001111010101101010001
