00111101101110001010101110110010
00111101110110010010110011010000
10111101110000100101010001001011
10111101011001111101010001110101
00111101010101101101101011101101
10111100101001111111010000111111
10111110100001101101111000111010
10111101111000100011010100010010
00111100111011011010010010100100
10111101010011011010110011011010
00111101000101001100101110110010
10111110000110010011100100001111
10111100101110001000010011010001
00111101110011100000001001101100
10111101111011111000011101011010
10111101001001100100110101001000
00111110001100001101111000111000
10111101011011001010010001000100
10111101101001011110001011001011
10111100011000111100010010011111
10111101110111000011100101011010
10111101111111101001110101011111
10111110001100011100010011000001
00111110000111011001101001000001
00111110000010110010110000000001
10111110001101110011111111010110
10111101111110101101110001101010
00111101111001100000000010011010
00111100001100010101010101001001
10111101011001101011100011110110
00111101001000110001111010111100
10111110000101011000100001011010
10111101101010010011100011000001
10111110000100110110011110001101
10111101110111110110101011011010
00111101010101000000101001100111
00111101011000011001011000000111
10111101110100101110111001111100
10111101101001010001100011101011
00111101010011101110111111010011
10111110011010001100111001111100
10111101110000010101110010001101
00111101100111000101111111011111
10111101111001110000011101101100
00111110010101111010110100110011
10111101100010100000101011100001
00111101100001101110011000000100
00111110000010110100101000100010
10111110001011011010011110100110
10111101100100010000010011000000
00111110001100010100010100001101
00111101110100111100000000011010
10111100110101001101011000111110
00111011100010010101010100110101
10111101010101100000011010010101
00111101011111111000000101101011
10111101010110000011011100100001
00111110001111001010100101100110
10111101101010011001010101111011
00111110000110100000010000001000
10111110000100010100111100011111
00111100000011011011000100100111
10111101100000000010010000100000
10111101010011001011100101100011
10111110100010001010011100001011
10111101101110001110111010001101
10111101101010011000110000101010
10111110000100111111011100001101
00111101001100011011011111001000
00111101000010110011000110001001
00111101011001100101001100101100
10111101010111110111111111111110
10111110001101001110001001010001
10111110001000011000110000000011
00111101010000111000000111000101
10111101100100010111101011111010
00111101001011000011111100110101
00111011011000100101000001011111
10111100100000100010110011001011
10111110000001011001101110111101
10111100100110011111101101011100
00111110010110001101010110100101
00111101111000101111101010100110
10111101100010010010000101111001
10111101101101011011010000011010
10111110000000010101100101011101
10111110000100011100111110101001
00111110100010110000101111000011
10111101100101100110001101110011
10111110010001000111001100110001
10111101001110001100110010011101
10111101011011011111000001101111
10111100100001010001010010101100
10111110000000110101010110011110
00111011101110000110111101111001
10111100011101000100101001100111
00111110000111111000100011010100
00111101110100010001111110110001
10111100110010111001100010101100
10111100111101100100010100111101
00111101000100101011000010101100
00111101110011100100001111010111
10111101100001000011001011010001
00111100101001000011011111010001
10111100111000110010101110000010
10111110010100001010010111111001
10111101111011010011110101111111
00111110100101101111100011111001
00111101011110001110100100100100
10111110001110110110000000000100
00111011100110011010101000111100
00111110001000011101110101110101
10111101111110101000100100001001
00111101100011001101011010000000
00111011101111010001100110111001
00111101101101110001100100000111
00111101100000001001111000101001
00111101101011010110010010110010
10111110000101110100101111001110
10111101101100010101000110000010
00111101011100100000101101101100
10111101101111111011000110100010
10111101110001010110010110111110
10111101101011111011000100011011
00111100100001101101110000000010
00111101000010110001010011000000
10111101100010000100000011001100
10111110000010001110000010101011
