00111101100111000011011010011111
00111110000110001111000101001011
10111101010101101100000100011110
10111101110001001100010100100111
10111110000110000101010100110010
10111100001110110000011101000110
10111101001111000010010101010010
00111110000001011101101110100100
00111011011100010101100111000001
00111101001111110011101011011011
00111101011000100010110000100100
10111101111010110100000100101101
00111101001000111010111010001111
00111100100100101110000000001000
10111110011000001111111111001010
00111011111101100110111000000101
10111110010011010011001110100010
10111110100000110101110000000010
00111101000000001011111100101010
10111110000010000000011011111100
00111101011010001010001100111100
10111101110010011110000010110011
10111110001000001010011110000010
10111110000111000011110010110011
00111101100110110100111100011000
10111100000111010011111101100100
00111110000100010000010111000110
10111101011011010001111100110101
00111101101001100110001100001110
10111101000111001100111100100111
10111101010001001000111000110001
10111110001001011101110000110100
10111110000001111100010111110010
10111110001110000010011000001111
00111101010111011111001101011110
10111101001111110110101110111100
00111101111101101001010011111101
00111110010100100010011110011110
10111010010001010110001001001100
10111101010001000000001101100000
00111101011111001000111010101011
10111110001101110111010100110111
10111101100010001100011100110000
00111100111111100110010101110111
10111110010010101001101011100110
00111100010110001110001111100101
00111101101000010011011100000111
00111101111110011011010111000001
00111101111100100100001110010001
10111100111001111001001111111000
00111100010101001001111011010011
00111101010110100101101101100010
10111110001001011111000110011011
00111101110100111001001110001010
10111110011001011110110000001000
00111101101110000100101100111111
10111100001101001101011010111110
10111011010000111100010100101110
10111101100111100111110010101111
10111110000000011011001011000110
10111101011100011000101001110110
00111100000111001110000101001000
10111101100101010011100000011110
00111100111100101101100110110101
00111001000001000111101010110100
00111100110011110100000011101010
10111100100001100101101001011111
10111110000101001111001011111011
10111100100100100000000110110101
10111011100101000100100000111010
10111110000101001111111111010011
10111101110010011111100110000001
10111101101101010100111001100011
10111011011111100011100111010110
00111011110010010100110100011001
10111100100111100011001011001010
10111101111010001011100100010100
10111101110111100101111010001001
00111101100011111010011101011011
00111110100011011011100100100100
00111101001101100101001011110100
10111100111111101011001111111000
10111101010010100001000101101001
00111101100000101100101010111011
10111100101010011111010000001011
00111101110110001011100110111000
00111101100011011110010001010110
00111101100101001111110100101011
00111101100011001111011001110101
10111101101010001111100101011001
10111101100001000010010111010100
00111101111011011101111001001011
00111101000110100110010001111011
10111101010111111111010100100010
10111110001010100101100111010101
00111010011101011111010110001000
00111101110110101100000000110101
10111110001100110011111110010101
10111101101001001100001111100101
10111101100011010111001000100001
00111101100101001001110011101111
10111101111110101011110101101111
00111101000010110111010101000011
10111101000001001011100111010101
10111101100101000100000010011111
10111101001000101011000100100001
00111101010010000010100001001110
10111101100110110011101010101111
10111101110101101010011000110010
10111110001001110110011111100110
00111110010010100010001100001110
10111100101111001000100010001100
10111101110001101100110111110101
00111110001001011110010110100000
10111110001001100010111010010100
00111011001110100110101010100011
10111101011011110000101110101100
10111110010100100011000010101011
00111011100110111110011001011000
10111101101001101011001001101011
00111010001100010100001100000100
00111100011101010100011001000110
10111101101100101111101101111011
10111110001001001101000001100000
10111110011010111001000111000100
10111110001001111100001110000011
10111101100101100011011010100100
10111100010001000100010010001110
