10111101110001100100110101000100
10111100110101110011000000100110
10111110010010011100111101111001
00111101100001100011001110101001
10111100100111110101110001001000
10111100001111011000010011111010
00111100001100101010011000110011
00111110001010111101011101010111
10111100100011001010110000000011
10111110000110100001011110001111
10111011101101000001000100101111
10111101100111111110010101111111
10111101001011111011111100001110
00111101100001011001011001101010
10111101101100001011001011001111
00111101101110010011000101000010
00111101111101101000111001011101
10111110000001010001001101011100
00111100111100111010001001101101
00111101110100011111100001111010
00111101100101111111111010101100
10111101101111011100001010111001
10111101110011111101100111000101
10111101100110110000001111011100
00111011000101001100010010000011
10111101111001111111010000101110
10111110000011011001001011100100
10111101000001101000110000111011
10111101011011010001100010101000
10111101111100101100100010100110
10111110100001010010110001100000
10111110010001101000001101111000
10111100001100101101100100010000
00111101011100010101010100000011
10111110000001010001011111100010
00111100001100011100001100011100
00111101010011110000001101001100
00111101001110111011001000001111
10111101100010111011111110010010
10111101110110010111010101000100
10111101011010101100111100101111
10111110001000010000100011111011
10111101100001111111000001010001
00111101010001011101001011001110
10111101111101000000001000100111
10111110000101001100011001110000
10111110001011111000110100101011
10111101011010110000101100000101
00111101011100011111100000100110
10111110001100111001110000000100
10111101001011010100000111000110
10111110000010100100100100110110
10111101010111011010110001110000
00111100100001101110101001010010
10111101101101001101011101001000
00111101110001101000000100010101
10111101101010001001001100101100
10111100100101000010011100001100
10111010000110011110000000100110
10111101111111010010000100011010
10111101010111011010010111011000
10111011001111010100010100111011
00111101111110101100100100000101
10111101001100001000000000101100
10111101100000001110000111010001
10111110001110100100110011100101
00111101001100101001100101011001
10111011010000100111100001010000
10111100111100110011100011101110
10111110000111111010101111111011
00111101100011110100111111111111
00111011011111101000010010110011
10111110100111001000111000110010
10111110010001001011101101010111
10111100111111010100110001100100
10111101110101111111011110110100
00111101001100010010110110001010
10111101000010110001101010111001
00111101111010010101001111100010
10111100110001001100101010010011
00111101100011100110110100001001
00111110000101000010011110111101
00111101100001111100100100100010
00111101101111110000011111011111
10111110001010100111010000001000
10111110010110001001000111001101
10111110011010010010011000010110
00111101101011101111010001111111
00111101100100001000100100110001
00111110000100000101110010110001
10111011101100111110010100001110
10111110000000101010001000101101
10111110000000001011001110110110
10111101100001110000111110111101
10111110000101110001010001110111
10111101111100111000111110111001
00111110000111010010001100100100
10111101100001011001010100111100
10111110001110011101111101011010
10111101111001000000010101111010
10111101110100010111111101110000
10111101011000010100000101010011
00111100000010111010010110010000
10111110010111101100110111111111
00111001001011001010100101101111
00111101100000101111110111011100
00111101010110000111001111011100
10111101001111101000001111001111
10111110011001010010110100110100
00111101110110100010111101001011
10111110010001010100111001101110
00111100111101111000100100010110
10111110011000110000000001110111
00111101000000000001111011001100
10111110000110001011100001010000
10111110000001010100111100101011
10111101100000000101001111001011
10111110010000000001100110001011
10111011011001010100100011101111
10111101100100100101000001111100
10111110011011111000010010111011
10111110000000110000110100101100
10111101110111111011001100111001
10111101000000011000010011001101
00111101101100000111010101111011
10111101110101110101100000010110
10111101101000101101010101000001
10111101100001010101101111101010
