10111101001011111101000111111110
00111101111000001101010110000000
10111110010001011001010011101011
00111101101100010110110010001101
10111011100111100010111111000110
10111101100101000110000011001100
00111011110100100010101011100110
10111101110100001001101000010111
10111101110100010010101110011011
10111101010110100011110000001011
10111101111010000000010011111110
10111101100001001010110000101011
10111011111010110000101111101000
00111101011011001110010010010100
00111011110110111111001111100001
00111100101000000011110100010111
00111101111011110100110010011100
10111101100011000110100011001011
00111101001101100000100001001011
00111101010011000011001011001001
10111101110110100010001101010000
00111100110111011111001110001001
10111110001100100000010111001101
00111101001101011001101000000001
00111101110010101000000000100010
00111100100001100110111011001011
10111100000110110111100010001111
00111101010000010101011010100110
10111101110110111110100010101101
10111110011011111100001101110100
10111100100000011111000010010000
00111110001001110110100011110110
10111101111010001011101101000001
00111101010101101001111001011010
00111110000101000111001100101111
10111101011111101110101001011000
10111101100001110101000111111101
00111101011011101110001110111110
10111101111010000110110101010110
00111100010010001001010010101011
10111110001010110001111011101100
00111101010110101110000100100011
10111110011010100111100111001001
00111101011001101011011100010100
10111110000011111100011011111100
10111100011001111111111000111111
00111110000101000000001110000001
00111101001100011010101110000001
00111110001001010010000001110111
10111101010110110110010001001101
00111101011001100010100000000000
00111110011011101000101001100101
10111101110110001101101001101100
10111110010010011101011000000100
10111101100010100010110110111100
10111100100111100110001010101111
00111101000101001011000101011011
10111101011011001011011000011001
10111101101110001010110111100010
10111101000010100100010011000101
00111100101000001011010110110100
00111101001101111011100111100001
10111101110100011000000100101110
10111100111000111000000010100000
00111100100110010101000101000100
10111101101100011110111100001010
10111101100011110110000000010111
00111101100010111011100000100010
00111101011110001010111000110011
10111100000000010111100010101000
10111101100010011011000001010100
00111110000010000111110011110100
10111100010011110100001100001111
00111100110000000111001000101110
10111101110110000101001110111110
00111101101000101001110110100000
10111101100101000110000100000111
00111110001111111001010101010000
10111101110110100111010100011111
00111110010000101100100101111110
10111101010000000100100011100000
10111110010011001010101001011111
10111110000000110101011111111011
10111101111000000000111010001111
00111101001101001110101111110111
00111101100101100000111101111011
10111110000000110100110101111000
00111101110001011100101000111110
10111100111110011101101001100100
10111110001010111110010001001011
00111101010101100011110111001000
10111110000101001010110001010001
00111110000100110001111110111110
10111100111000000100101110011001
00111100101100011001101100011111
10111101101010011011011111111100
10111110001101011011001100000010
10111100011101001111110100011010
10111100101000111010110100100011
10111101101100000010001101000101
10111110001010100010010001100010
00111100110010000001011100010001
00111101000100111001001100110100
10111110001110111001110101010011
10111101011000000111110111110111
00111110000100010111010101100010
00111100110011100010100110110110
10111101101100011001100010001110
10111101010010111101100111000110
10111101101010111001110011101001
00111101111100011000011011111010
10111101001011011010010100111011
10111101101001000011000011100100
00111110001001011011011100110000
00111101011000010011011110011111
00111101000010111001011010000111
10111101101111110001001110111101
10111101011001000001011010011101
10111101110011110001111110010110
00111110000000000011010010110010
00111110000100001110001100100100
10111100100011011101010010100001
00111101101000100101101100100111
10111101011111101111110000011111
10111101101111011000101101100001
10111101101001011101110010000111
10111101100110010000100100100110
00111100000010101110001000101011
