10111101101101110101011000011111
10111011100011110101101111111101
10111110101000001110100110100010
10111110010010111110001110110000
00111101011010110011110000101010
00111110010000101000111111010000
00111101000011111011010011001000
10111110000000001100110100001001
00111101010101100100111100111010
00111100011110001011000001110111
00111100001111011010000000011001
10111110000001100010011010001110
00111100111101001010110101110101
10111101001011110110011111100000
10111101100110111110010101111000
00111110100011011101001000001011
00111101101100111110010100110101
10111101101011101111011011001111
00111100111011001011010100100101
10111101010110000110011001100010
00111110010010110011111101001000
10111110001111111000110111110010
00111101000011100010001101000001
10111110001011101001000010111110
00111101001101110011101110101011
10111101010001111001101101110001
10111101100010110111011101101100
00111101110011100011100101100010
10111101000101000000001111100111
10111110010011001100100100111111
10111101111001110000011100101101
10111101110110001100100011001010
10111101111000111010110010010101
00111100001010101111000100001100
00111011100000000100001110101110
10111110000001101011100100000110
10111101101000101000000001011111
00111100000100100100010110110000
10111110001000000100101010010110
10111110001011100001100010111101
10111110011001011011101011010011
10111110000011100010010100000001
00111101001111010110101100010000
10111110000001011010101111111011
10111110000011111010100011110001
10111101111001000010001110100000
00111101101000101111100010100001
10111110100001011101100100101101
00111101100110000001100010011001
10111110010100100001011110001111
10111101100000100011111110001101
10111101100101001100100000001001
00111100111001010101100010011001
10111100101110000100111111000101
10111011111100100110010001110111
00111101110100001000101001011100
10111110000111011000100001011000
10111110010000010110000000111010
10111101101010101110000101010011
10111101111110101011001100100101
10111110000111101000011010111110
10111110000111100010001100000100
00111101110011110001111010011010
10111100010000000001100000110101
00111101110000001101100111000110
00111101000000000010000001000001
10111101100010001110110001010101
10111101110100111101001011101011
10111100101101000011001001001101
00111011001101000010010010100000
10111101101101011010101111001000
00111101001010000101111100001011
10111101111101010111110100111001
10111110001011010101110011101010
00111101000001101101100111010010
10111011000011010001000001100001
10111100100011101100001000111001
00111101010010111010010111011101
10111101100100100001001011010011
10111101110011001111111001100110
10111101000000100001011100011010
00111100010000001110001011010011
00111101101000000111000011011011
10111110001010110011000101000010
10111110010000100111101111100001
10111110010010110000110011001011
10111110010100111010110001101010
00111101111111110111010100110001
10111101011110110010101101010001
10111101000000010101000110000001
10111110001011000110010111110100
10111110010000100000010110010111
10111110000101010001111001011111
10111101101111101010100100101111
00111101000111010011011111010011
00111101101010000010001110110011
00111100111101010111111111111111
00111110001010110100010010111000
00111101001100000110110111000100
10111101110011110100011110011011
10111101011001111110000000111111
10111101011000000100101101001001
00111100111110001011000011010010
10111100000100101100110110011001
10111110011010000111011100100101
10111110000010010010111111001101
10111110100010100110100000111001
10111100001011111000111010111110
10111110010001111111000100111000
00111100010110101110100010110001
00111101101011001010000101001111
00111100001011011010000100010100
00111101000001111111001001010100
00111101100010010001101110111011
10111110010010100111011101000011
10111110100001000001101110000010
00111101101110110111101100000001
10111110010011001000100011001110
00111101011111111011011101100111
10111100100111101101110111110000
10111110001011110001111000111001
00111110000101110010111011101000
00111101100011010011001010001010
00111101110100001010010100100010
00111101010110101100101100001010
10111110010101001101111111000011
10111101011111000010111011110010
10111101110111101111111100100001
