10111101001111101110011101110010
00111101101100001010000010101001
00111101110110110011110011101111
10111101000111000101010100011110
00111101100011111000110000110010
00111110000001001000110101000011
00111101111010100111111101101100
10111101111011011001011010100111
00111110010011110000100101110100
10111110100101001100000010101010
10111110011011011111110000000111
10111100010000000001011010100010
10111101101100011110011100011011
10111110000010011111111111101010
10111100010110110001110101011000
10111101100101010011010100001010
00111100000010011001101110110011
10111110100010101111100001000010
10111101110111001011011010010000
00111110011000101100001110100000
10111101111001111101100110011100
10111101010111101001110000000010
00111110010100110101101110011001
00111101100011000011011100110101
10111110000110010101011001100110
10111110000000001101101010101011
10111100110111001110110011001101
10111100111111111001100010100011
00111101111000011010000100010110
10111110001101011100110000100011
10111100011010010000001100110001
00111101011000101101000000100101
10111110000100001000011110110011
10111110000000001110011101111000
00111101110011101001110110011011
00111110011001010110111000100001
10111110001010110011110010110101
10111110000110111000011011111101
10111101111001001100100000010011
00111101000000110100011010111100
10111110011000101110100001001110
00111100111110110001100101010101
00111101100111101101011110101110
00111110000110000011011101010000
10111100100010110001000011101011
00111101011111111011101001011001
10111100101011100110101110110011
00111101101101010011010100000001
00111100000100100011110011101100
10111101000011010111011100010111
10111101111101001001010100010101
00111101001010111011110101011100
10111110100010111101010000000011
00111110000100000011011010110110
00111110011100101100101001110001
10111100100101001011101001011010
00111100100100110010110101110000
00111101010111110110111000000000
00111100001100010100101101010111
00111101110001101001101010100100
10111101100110101110110100010010
00111101100100000011001001010011
10111101111101010111111010100010
10111100001111001010011100010010
00111101001010010111101100101010
10111110000010000011110001001000
10111101101100001110001111110010
10111101100110000100001011101001
10111110010111111001111100001010
00111101001000111011000101100100
00111101011000001110100001011111
00111110000001100101000111101100
00111100001101101100100000110101
10111101010011011111110001000010
00111010110110110100110000101111
10111110001110000010111110111001
10111101010100100011010000111000
00111101101010110110111111101011
00111110000101010101000010010010
10111110001101010000110011110110
00111100010101101000100010111110
10111110000001110100111011111110
00111101000101001010101101111001
10111110010010111010111001101101
00111101000110111100101100101110
10111101110111011010100111110111
10111101100101111011101110101011
10111011101000001000001100100001
00111101101111101000010011100100
00111100101110111111111111111111
00111101110010010111001001110100
10111101101101101111011000111101
10111101111010001011101100111000
00111101100011010100100100111010
00111110000111101011010011100111
10111101111000000100001000111101
00111110000010101010110010011110
00111101010101111010111000011110
10111110000110000111000001101111
10111101110101101110111111100011
10111101101111110110000111110110
10111101111001101001100101000011
10111101000010010100101000100000
10111101100101110011010001010110
10111101000001100101000111001101
10111110001111101001110111101001
00111101001000101000100011001000
10111101001101111000110100111000
10111101010100110010111011010001
10111110000110011001110011000000
10111110000000000111100000001110
00111110000101011011000011100100
00111101111001001100111010010110
00111100110101001001000000011011
10111100011101010100001000110110
10111110001001010101001000000000
10111110100000111100101111000101
10111101010100101100101000001000
00111110011110001001011010000011
00111100011001000000111110011011
10111101000110111001010101111001
10111101001101100100110001000110
00111110000011001110001010111011
00111101101010001101111000001011
10111110001100111011000010000110
10111101100100110101010000101000
10111110100100001001100111110111
00111110011010111011100001001011
