00111101100011010010001101001101
10111110000001100100101011101101
10111110010001101100111001001001
10111100100010101110011111111100
00111101111011011000111110010000
10111011110101101101101110110000
10111101100100011001110001101001
10111100101100011100001111110000
10111110001110011100111011101010
10111100100010010000001001000010
10111101100100000111010101100010
00111100011110011011111101010110
00111101011011011110010000100111
00111101011110100001010010001110
10111100111110010000101111111011
10111101111101101110010111100011
00111101110101000011100010001111
10111110000110110110010001110011
00111100000010000110001011100110
10111110000001101011000011111001
00111100000000110001000001011000
10111100110001101010101001010000
00111101101000111111100101010011
10111110001100000000001011001000
00111110001000101111101010110101
10111110001001001000111010011010
10111101011101101000001111000010
00111110001100110100010001011110
10111110000110001000000101111000
00111101100011100000100101010010
10111100010110111011101111011100
10111101101011111110000001101100
10111100011111100111000110010011
10111110001110011011001100101101
10111110010001011110001010000011
10111011110110100010000111100101
10111101100011000010010111100000
10111110010011011000000110011100
10111110000110001010001100111110
10111011001101010011110001100100
10111101110100101100111010111101
00111100011000000100101001010000
00111110011100110100011100111010
10111110000111000110010010111010
00111101100111101001101011001010
00111101111010011001111011011001
10111110001111001110101100101000
10111001010000111100010101100011
10111101011000100101111101011011
00111110001010001101100001000011
10111110001011101001110111100001
10111101001110111101100110101011
10111110010011001001011101000001
00111100110001000100010101100001
00111101010111011111111111010000
00111101110000011011001011100001
10111110001000110111011101100101
00111100000101001010110100100100
10111110001011001001100011101000
10111110010001101001011010001100
00111101100110100110001010101000
10111010110000001000001011101111
10111110001101100010110101011001
10111110001100001000100000110011
00111101000000010010111001100011
10111110001000011110111110010110
10111100001000111000001010001100
00111011100110001110111000101101
10111101011011110110100110011000
10111100101110111010010010010110
00111101100101011110101011100001
00111010100100111000100111001101
10111110000110000011010111110001
10111100010011111100111101011000
10111110000000011111100111100110
10111100110110000011110101000001
00111101011100100011111011000111
10111110000001111001110100111000
00111101000001011111000111110110
10111101101101110001110001100000
10111101010110011100010000111110
10111101110010101110100110101000
00111101110000111011101001110011
10111101011001011101111000101010
00111110001001000010100100100011
00111101010110000100100000000110
10111101110011011011100001011110
10111110011010000111001001010101
00111101100101001110100011000101
10111011111101110101010110001010
10111110000100001100100011011111
10111100101000000001101101101010
10111100001111010011010000010001
00111101100111111100010001010000
10111101110000001101000111011110
10111110011110000110101101010010
00111100111111110001010010101111
10111101100010100011101001001111
10111110001100110010111111000111
10111101101110001101000010011110
00111101111100111001100111101101
00111101011000111011110011010101
10111101111011111001101010000110
10111101101101111010010000100110
10111101000000001101100111110111
10111101101010011100011000001111
00111101010000000010011001100101
10111110000101000000011101101100
10111100111001011110001001110011
10111101011001010000010000111101
00111101100111000100110101001110
10111101010000010110001011111011
00111101101001100011100011000110
00111100111010101000100001100111
00111101101001001001100000010111
10111011010110000010110001100000
10111101111001101111101111100011
00111101110001000111111101001001
00111101100001010111011001110001
10111101000111111010001101000000
10111101011011100001000110101011
00111100111101100011101011100010
10111101101010101011111111111100
10111101000010111101100111000100
10111010101010110010110010000000
10111101101111110000001010100011
10111101101110001011010011111011
10111100010001011101101000111110
