00111110010101000100110010101011
10111101111111010110101100010000
10111101100111000010110000000100
10111101111011100101100111011011
10111101010111001001010111111001
10111110100000011110011101011111
00111101011101010110011001010010
10111101100000101110000101011100
00111101100001101100001111111010
10111101000100100100010011011010
10111101101101101011100011101011
00111101100111111001010001011101
00111101110110101100001100000011
10111110001010010110010000111000
00111101100011010011000010001100
10111101110001001110100000000110
10111101101101001111001001011000
00111100101101111011111000000101
00111110001000101100111101000111
00111101110100011110110111011000
10111110001100010001000000100010
00111101110011011111111111111100
10111110000000000001011101100010
00111101010010100100011110001010
00111101010110010111101111010100
00111101101001100011101001001101
10111101001101011010100110101101
10111110000011101000001001111001
10111101101110011010001101110001
10111100001000000010011011000100
10111110000111100110010011011110
00111100100001001100001100100100
10111110011101101111010100100101
00111110000100011111001010100011
00111110000100000100001111101101
10111101001110110111011010100111
00111101100000100101001001000101
00111101101001111100000100101110
10111110010110000110001001010011
10111101001000011100100110010000
10111100110110010110010000101111
00111110100110111100101110101110
10111101101000101000010100001000
00111101000100001101001101111010
00111101101001010111011001101101
00111100000100101000001011000010
10111100100100111110101000111111
10111100011110100100111011101000
10111101100001110011111100100001
10111101000010110100100001111101
10111101111111101100100001111000
10111100011011001010101001101000
10111101010001110111110100000110
00111101100000110010001011110111
10111010111000000011101110010000
10111100111111000101111111101101
00111011101001101010101001011001
10111100111110111101010011101100
10111110011010111000011011100101
10111101011010100111100111101101
10111100101111111011011000110111
10111101010101010100110101101001
10111101110010101110111000000011
10111101101011101101000110000101
10111101100000101101010010100001
10111110010000001010011010001000
00111100011000101000000100000110
10111101001011110110001011001010
00111100111100011010111011100010
10111101111011001011011011000111
00111100111011000111000000001001
00111110001000100100110101011001
00111101010001011001101110001110
10111110011001000011100100111001
10111101101100100001111000011001
10111101100110111011101100110001
10111101111100001111110010011011
00111101000010000000011101110000
00111101110100110000110101111110
10111100010001011001111100010011
10111101011101001111110110110011
10111110001110111110010111111001
00111100101100000010001100010110
10111110000001001101111001101100
00111100101011000010010110000111
10111101110100110110111101100100
10111101110101111011000000011100
10111110001010001000001111001100
10111101101000110100111010001001
00111101001001111011101111111010
10111110011000110011100011100010
10111101100100110101010101001011
10111110010000111000001111101010
10111100110011100111000100000000
00111110001100001011111111010001
00111101000001010011101101000011
10111011101100101001100100000101
10111110010011100110110111101010
00111101100000111100011011011111
10111110001110110110110101110111
10111100110011100111010000111011
10111100111000000101000011000110
10111100000010001000100111000011
10111110100100010100101011010101
00111101001010011100100000100100
10111110001011000110100000111101
00111101101100101101011100000011
10111101100000000011000000100111
10111110000111100011001001000111
10111101001011011101001011000010
10111101110101000011010110111100
00111101110010011011110011011111
00111100101010101001111011100000
10111100110101100100111101001101
10111110000011100001011111011100
10111101001011000111010001110010
10111110000001110001010100110101
10111110001010101001010001111100
10111110000111111010000010011011
00111101010001110100101110100100
10111101101001100111011111010100
00111100110000101110001111110001
00111110000101101010111001001100
10111110000100010011011110011000
10111101111010100011010110101010
10111110000100001011101000101000
00111110000000110100000110100110
10111110001001000011001100001000
