10111101110101111011011010101001
10111101100001010001000000000101
10111101101011001011101100100010
10111110001000100011010100101110
00111100111111111011010100100110
00111101110100101111100010010100
10111101001010110101100100011100
00111110000011011011110001011010
10111101011010101111111010010100
10111110001100011100101000000010
10111101000111110110111111001101
00111101100010000000000101000100
10111110000011111111101010001000
10111101000111000011010110011000
00111100001001111011110111100111
00111101110010111000101100110100
10111110000010111011100000111010
10111101110001011010110101001010
00111101100001010000101101100001
10111101110010101000111000100001
10111101101111011111110101101111
10111110000110001101000001110000
00111101010111111010001110110001
10111100100000000110011001111101
00111100110100001010111101001101
10111110001010011100001000010011
00111101010000101100100100100010
10111101011001001001001101110011
00111110001011000001010101010101
10111101010001000010010000101111
00111101001011001101100001100111
10111101100010011101101000101101
10111110001111011001111001001010
10111100100110101011010010011000
10111100011010011001110011011100
10111110000000001100010011001010
00111110010010010010010010011110
10111011110011011111100010100110
00111101010101110100011011100110
00111110000101011101010010101101
10111101100101110011110001000101
00111101101001111000010101000011
10111101111110001101101100110110
00111001110100100110001110110100
10111110000101011010111101011001
10111101000001000001011001000001
00111101111001100111101011110001
00111101100001010111111011011101
10111110001100110100010010110101
10111101111100001010000101011010
10111101111000100011001011011100
10111110000010011001000111100100
00111101110111101111111110101010
10111110010111111011111111100011
10111101101100100000111110001101
00111101001011111111001110010011
00111101001110100111011101000100
10111100101100101010111100110011
10111110000110100000111011101001
00111101000010010011010001001111
00111100011101111111110000010010
00111101111000111100000001110101
00111101111110100101001110110000
00111100100101101011100101010011
10111101110100011100110000000111
10111110010100010001101100110011
00111101001101111100100000110010
00111101101010100000101100010100
10111100101111000101010110001000
10111110001100101100110111000011
10111101101010011101100001011001
00111101000101111101001110111111
00111101100011100011101110001110
00111100001001100111100100111110
00111101000100000000100001101100
10111010111111110010000101100010
10111110000000111000011000010011
00111110010011010111010110101000
00111100001110000101110111010110
00111100111000011110111000001011
10111101101001111010100000101111
10111101001100111010011011100111
10111110010010001010001011011001
10111110010110000110001111010111
00111100001111010000001001111010
10111101101010110100110101110101
00111101110000111000011011110101
10111110001010111001111110111111
10111101011101101110111000110010
00111100111001100110110101010010
00111110010100010100111100100101
10111110000000011100010110011000
10111110001110001000100101010111
10111101110101100101111100001101
00111101011110100011001111110101
10111100000011111000001111001101
10111101101001000001101110000111
00111101111110101100101000101100
00111100110101101011110101001111
10111110000100011101110100101000
10111101111011101010010000011001
10111011001101110000011101100011
10111101010101110011001111110000
10111110001001001111001101100000
00111100101100000000000010101110
10111110011000100001010000110000
00111101000010001001101111111100
10111110010000001100100101111001
10111110000010101111010000110001
00111101100011001100001101111011
00111101001000111011110101111001
10111110011001000101101101101100
00111101010000100101111001010110
10111101110010011001001111111011
10111110001100011010101111110000
00111101101001111000110010011110
00111010100101000111001110000101
10111100011011000001101010010010
10111101111100000010010111011011
00111101110001100001000001001011
10111101111001011011000111000000
10111100101000111010111111011000
00111101100100010000110110101011
10111110010001001110001011111110
00111110000101110100101101110110
10111101010011111001100000100101
10111110001011110111001011011010
00111101000111101000010101001001
