00111110010001100001001010011100
00111100001000111110011111011011
10111101101111111110100000110111
10111101011111100001000000100001
00111100000110011010011110101111
10111100010001110010100100101100
10111101110110000001000000111110
10111110001011010100101110111000
00111101111001010111010010010110
10111110001000100001100110100001
10111101101101010011101001000110
10111101101010011010101101100101
00111101101010011100100001011100
10111110011000110110101100001011
00111101001101110111111001010000
10111101011111111001000011110011
10111101010101000011010000001001
10111101001111011011011000001110
00111101000001001101000011000010
00111101111000101000111011110010
10111100100100001100010000100111
10111110001001111001000011010001
10111101111111001001111000001011
10111100011110000010010010011111
00111110010111110111011100000000
00111011010001000010011110010001
00111101110100101000111110001101
00111101111110100010011101111100
00111110000000111010000110011100
10111101111000010011100100010001
00111101101011011100111101011010
00111101001010001101000110000000
00111101101001000001100110100010
00111101010111110000010011011011
10111101111001111101010011011100
10111101100010100100111101100011
10111110011001101111001100100110
10111110001100111000110000110101
10111011101111010001101011001110
10111010101101110101100111111011
00111110000110010000001101000100
10111101110011000110101101101101
00111101111100011100000100010000
10111110000000111110111011010111
10111101110000100011010011111010
10111101011010101001110001011010
10111101101100000100111101111100
00111101010001101011010001110101
10111110001010000100111000110000
10111101001010110110111011101000
10111100101101101101110001101101
10111110011000010000001111101110
00111110000111001010011010110100
10111101111001001000001011000111
10111101010111110101101111001001
00111101111110101000011110111110
10111110100010000011011001101001
00111101101000010100111011110110
00111101101100010111001000110110
00111101000111110101110001111000
10111100110100000101010011011110
00111101101011110111101011111010
00111110000011000011010110001000
10111101110110110001110110111011
00111101010101001101111100010100
00111101100001101001001101101100
10111100101010011110010100011010
00111101100101001010111101011101
10111110011001110111110100110100
00111101010011010111011101110110
10111101000111101100100110101110
10111101101010010100111100000111
10111101100001011010010010100110
10111110010110110100110101010111
00111101100001111000010111000001
00111100110110110101000100001011
10111101011111000101101011111100
00111101100111011111001101010100
10111101110000111000111101111010
10111101001111001001111010111110
10111110000000101001101001100101
10111101101001011011001110100010
10111110100110010001100010101010
10111100100111111010110001011110
10111100111001101110001111110011
00111101101010001000000001000000
00111100111000101001001011010011
10111101010101100000011001111010
10111100101010101100100010001110
00111011101111100000101111110011
10111110001010011100111101101011
10111101111101100101110110111001
00111101110110111100011100011001
10111101000010000110000001000110
00111110010101110010011001111000
10111101100011001010000001010000
10111110011110110001111110001100
00111101110101101111011011101010
10111101011100100011001000010100
00111101100000111110011111100000
00111101010010100001110011110110
00111101010101001101101101001110
00111110001000111011000010011110
00111101110010011100110100000000
10111101100101100110101010110110
10111101000101110110111101011100
10111110000000001011111000011011
00111100101101010101010000001100
10111110010000011001100000000001
10111101110000111100110110111001
10111100011110001100000010111010
10111101101000000010000111001110
10111100001111111101010111100101
00111101011110111011000111001111
10111101111100110110100111011110
10111101011011010111100111011100
10111101100111111101111100011100
10111100101010000001011001111101
00111101100111011001111110110111
10111101111110011000110111110111
10111100101001111000110101101001
10111110000010001100010011001010
00111011001001110001100100110110
10111010100101100010110000101010
00111110000110101011111011101101
10111110001111011111010110101010
10111011011100001111001101011011
00111101110101101011011001011001
