00111101111001111011001010110001
00111100010011111001011010100010
10111101101111101101010110010101
10111101000000111101111011101111
00111110010001000001111100011101
10111101110100101010000010001111
10111101100101011011011101100110
10111101111000101000010110011010
10111101100110011100110111000001
10111110000101010101101110001001
00111101111101111010110001110110
10111101001111101000101010100010
00111101100000100010101100101100
10111101110001001100101011100001
10111101000101101011101110001111
10111110000110010001111010010111
10111110000101000010111100000001
10111101100110111101111100100101
00111010100011100010001101001110
10111101110110010000111001100011
00111101101011011011011000110010
00111100000011100110010000111010
10111101000000111000001101011000
00111101110011000111011100011101
10111101010101100101001000000001
10111101000101001111001000011100
00111110000111101000101101000011
10111101111111011101010010011011
00111110100000100111010110000010
10111101101110100000010000011011
00111101101010110101110010000001
10111110011111011110100011000011
10111101011100011100101000010110
10111101000100011110000010111100
10111101111000011010111111110011
10111101101111100111101110110000
00111101001000100001000111101011
10111110010110110001001011101000
10111100100111111110101001001000
10111101010111000011001111010101
10111110011001101111101111110111
00111101100111100010010001111001
00111101010001011001011010010110
10111101111101101111101000011010
00111101110100101100100101101000
10111110000011101100100011001111
10111110000010110101101101100000
00111110001111000100101001100101
10111101110100110000000101100101
00111110000011101111011111011001
00111101011001110000100010110011
00111100110010010010101011000100
10111101101110000000100110101000
00111101101011001111000100110011
10111100110001110100101010000100
00111101111101000111001010000100
10111110011010011111110100000011
00111101111100101110100110011010
00111101100111011110101001111010
10111110000001111101111001011000
00111110011111110011010010000011
00111011011000000000110000110001
10111101010111011001001111001110
00111101100001011111110101111101
10111101110101001111100110111100
00111101011101101110011100101000
00111110001000001000011111111010
00111101011101011001101001011101
00111101000110011110010101011000
00111101000011101000001110101000
00111100101001100010100100111010
10111110000010111101100011101110
10111101100100011110110011100001
10111110001010001110101010011111
00111100111011000111111101010011
10111101010010111010000011010000
10111110001111100111100111000100
00111101100100111100100010101111
00111101111111101100001100001101
00111101010111001101011001110001
00111110000100101000111111000111
10111100000001010111100000100111
10111101100010111101110000011000
00111100100111111110111100111111
00111101101010000111110110101111
10111110010000000011110110111110
10111110001001001011010101000111
10111110001101010010000011001110
10111101001001101111101000110010
10111101000000001000011001110101
10111101101000101110011001101010
00111011000100100001000111110100
00111101110001000110110001110011
10111101010010000111001011010011
10111110001000100100011001010111
10111110000100001110101100001101
10111101001100011001001010001111
10111101000111111111001010010101
10111101010111011010001101010010
10111101000111011011011001011001
00111101001111101010101001110110
00111011001111000001111000010011
10111110000101111110010110101100
00111110011101011001100110110100
00111101110101100000100011111011
10111101011010100000111010011111
00111101110100101011100010000010
10111101000110001000011111001101
00111101010110100011101110010110
10111100011100111101000101110111
10111101110111001010000001110101
10111011100101110101110111100011
00111110000111011010001001110011
10111110000001000010110011110001
10111100111100000001110010100000
00111101010110101100000110110011
10111110010011110101110010001001
00111101110101110000011101010111
10111101001010011111000100000010
10111101001011010101010110010110
00111101100101010000010110001110
10111110000011001000010000101000
00111110000101110000100001000010
00111101001110010011001011011010
10111110000111111101110001001100
00111110000000001010001000111011
10111110001000111011010110001111
00111101010101001110011101001100
