10111110010001011110001001011100
00111100000010011101101000011101
10111110001110110011110111001000
10111110000101010011100001100110
00111101110000101001011001010111
00111101011000110110010001000010
10111110000000001010111110000011
10111110001111101110110001110110
10111101111111011011010100010111
10111101100000100000001011101110
10111110100011110000101100000111
10111101101010001001000101111110
10111101111111010011011110110010
10111101101010111101101010110011
00111101111111100000100110000100
10111100011011011110000001001001
00111101110010101100011100001000
00111100110100001001100111100001
10111101001101101100111010011101
00111100101011101111110110011111
10111101101011000110101001101100
10111110000011100110001110111111
10111101010001010000001000111010
00111110010011010110010101010110
10111101100101100101110100001010
10111101011010111110010001011011
10111101010010111010011110110000
10111100110110011011011011010000
10111110001110100010111001100101
10111101111000001011001100010100
00111101011101101111111010100110
10111011111111100001101110101011
10111101011011100000111011100000
10111110000001011001110100010101
10111100011100111110111001101001
00111101011101000110001010011101
00111100101110011110110110011001
00111110001001011101110111100100
10111110001001101011010100110011
10111110000100000000010000110010
10111101011111011100100100111110
00111101100011001100010010011111
00111101000011111011010101001000
10111101110110110011110101001000
10111101000000010100111110011111
10111110001010011001011010111000
10111110000000001110101101110100
10111101100000010001000111001000
10111101110100011100100001101111
00111101011000110110110000001011
00111101100001111100010000100101
00111101100111000100101111001101
10111101110110001001110111101000
10111101101101100101010110011000
10111110011100110100011110110001
10111101001001111010000011011000
10111101111110100001110011101011
00111101100001001000000101111000
10111101001100011110110111000011
10111110000101001000000000000001
10111101101000010010000101010011
00111100011101001110000111111001
10111110010100110000010111000001
00111100110100011011111011011000
10111110001011100000001100011000
00111101100110100011011000111010
00111100111000011101001111110011
10111101111001011110001111000110
00111101000001011010010011101000
00111110100011001010001000111101
00111011111101010100010111010011
10111110000010000100110000010011
00111100111001010111111100110010
10111110001011000000100001010100
00111100010001010010001110000111
00111101011000001001111100110111
00111101101000110101010001011110
00111100111111001000000010100010
00111010111011010101011100111101
00111110000111000001011111111100
10111110011010001011111001101011
10111101111110111110101111111000
10111110010111110000001100010101
10111101100010100001011010110010
10111010110001011010110001101010
10111101110100010101010010000001
10111100000111010101011100101001
00111110001001100001001010100101
10111101010000101000110010001001
10111101001100010011100010010110
00111101111011010101010010011001
00111101000000001100010100011001
10111110000000011000000110000010
10111110010001100011111010001111
10111110000110011110101101001011
00111100111100110101011101100111
10111110000000101000011111101011
00111100010010101101011010101101
00111101101100010001001001010110
00111110001100000010011000100000
10111110000110000001110011110000
00111100000001111010001011100001
10111101101100001101010000110100
00111101110010111011010100100001
00111101101010110011100101011110
00111101100010110110010111110001
10111100101100100001011110010010
00111100101111101100101101010110
10111110000110110110010001010101
00111101011101010110011011000101
00111110000101010111100000000100
00111100000010000011001011100101
10111101111111101011010011001100
10111110001111111101110000000001
10111101011100001101101111000000
10111101110101101011001110111011
00111101101000001000011000010100
10111100100000011100000010110111
10111101001100110000100111001001
00111101100010000101110110110011
10111101110111100000111111011100
00111101110011111100110000100001
00111101010011010110011111110100
00111101010010110110110011001111
10111110000101110111100101001011
00111101100000110110110000000111
10111101100001000000100011111001
00111101100110011001110110010000
