10111110000011011000110010111111
10111110000001111111100100000101
00111100111111011111111001011100
00111101100011000001010111110111
10111101101100100100001110101000
10111101100111101100111010000110
00111110010101000011011011111110
00111101100010110111000010000110
10111101111110101011010110001111
10111101010011000011110010110110
10111101110011111100000011001100
00111100011000000001010011010111
00111101110100001111111011010001
00111011011111110101110010010001
10111110011001111011101111110000
00111110000111101010001111101101
00111110000010001010011001111110
10111101101110001101110101000100
00111100001110011111001011001100
00111101000011110111110010000110
00111110000110100010111010111001
00111101111111110110100101111100
10111110010110010110001110000110
10111101101000111000011110000001
10111101100011111001000000110100
00111101111011111110110000010100
00111100100011100110111000011100
00111101111110011110011000101110
00111101001111001001001010110101
00111011000111001000000110110010
10111100101000010111100001000001
00111110001000011101111001011010
00111101010000111000110000000011
10111101011100001010001001101000
00111101100110101111101000101010
10111101100101001101001111010100
00111100100110100101001110100111
10111101110100010010010110110101
00111101000010101011001011110010
10111100100001010000001011101001
10111110001111010110001011010011
10111110000011001011101101010111
10111100111010110000000110101100
10111101110011011010111000100001
00111101110111100101110100111000
10111011101010100111010011001110
00111101100011100101010111000000
10111101100010001110000010111010
00111101101111101111010101011100
10111110010111000010001100001011
10111101100111111000100010011101
00111100000111011000011011001110
10111110001011110000100111011100
00111100101101010000111110100001
10111101111001100101001011100100
10111100011010001011111110101110
10111101001101110011101011010000
00111100100000111000100011011110
10111101101110101100110011111010
10111101101110101001000001011000
10111101111110001101000001010101
10111101111010010001101011001000
00111101000010111110011010010100
00111101111101111011100011101001
00111101100110011011011000010010
10111100101001111010110001010110
00111011101111010101101011100000
00111101101010100011101100010010
10111100101100011000110010010000
10111101101001110000001011010101
10111110011010001100001100001000
10111101100000001101101011100110
00111100110101111100001010111100
00111101110001111001101010000001
00111110011001011111010010011100
10111101000000011111010011000010
10111001001001000001111001000101
10111101100100101010000011101100
00111110000000111010001001010110
00111101001111100011100111111000
10111101111110110011011111101001
00111101101011001010111011011111
00111101000001111110100000000010
10111101101111011100001001000001
10111101101011110111101011100010
10111110000000100101111111000001
10111100101101010001101100000110
00111101100011110101111011100010
10111110000000100110100101010110
10111101101011001111011010011000
00111101111001001010100001000110
10111101010110011100101010111101
10111110011011000011111001011010
00111100111011110110110100011010
00111100100011000000110101101101
00111101111101110111100001110111
10111101100001011100011100010110
10111011101010100011111100110011
00111101111100100100111100111000
10111101100110101011010101010010
00111110001000100110011101011101
10111110011101110111001111101001
10111101100110101111100100100011
00111110000100101111011000101001
00111110011100000000010100111010
00111110000110011110110100101001
10111101010111101100110010001011
10111110011000000111000101001100
10111100110101111011100010110110
00111101111010000101011100110000
10111101000101101001011100101000
10111101001111011110110110010101
00111101110000111000010010001011
00111101000000000110100101011000
00111100101001111111001101101011
00111101000011011100111000110110
00111110011011001010100000000010
00111101110100110001000010001100
10111101010010010001010001001111
00111100000111010111111110011010
00111100011101101111000100011000
00111101101101100101111100111111
10111101110100100011010001000010
00111101100110110111001111101100
10111110001010101011010000000000
10111010001011010110001101011000
10111101100010111111000111100001
00111100110010111101001111011100
