10111101111011100110001100100001
10111100010111111011101000000010
00111110000001111000110010101000
10111101111101011001010110100011
00111110010111001101100001110100
00111101000010110011110111001011
00111100111100100010101000111100
00111101100111001011011101010111
10111101110011001111000010001011
00111100110100101001110101100011
10111101110100100001011000110110
00111101000100000011000110000000
00111101000011010101111010011010
00111101011100110110110101100110
10111101100111011011011101010111
00111100110001111001000101000111
00111101100110011101110111111101
10111011110100001011011000011110
10111100010110010011101011000011
10111101110101010010011010010000
10111101101100110001011000000101
10111110000011110000101100110101
00111101111110001111110111101000
00111110001001110000100110011001
10111101111011010101101001000000
00111101111101110000110111011001
10111110011001110101110001100111
10111100100011111000111101110011
10111110010111111100001011101000
00111100110010101101110110010111
00111101101100111001000101000101
10111110011010010101011101010100
10111101111100000111111000101110
00111101111000011000110011001000
10111110011100000010101001110001
10111110001001001000001111010011
10111101011011101010010110001010
00111100101100001101000001101010
00111100111001010010001110011011
00111110001001001100111100000110
00111110001001011010110011010000
10111110010000010101010110001100
00111100110011101111111011110010
00111010100000001010011000110101
10111101111110101101010100110010
00111110001010010111111101110101
10111100010111110111100001011101
10111101101011101011010000011010
10111101011101101000010000011100
00111101100101100001000000001010
00111110000101010101001111101110
00111101110001010100110100001000
10111101001100010101110101001001
10111101111100010000000101001000
00111101101101001110111100100100
00111101010100011101111100111011
10111101110101011101011101111010
00111101110000000100010010001010
00111101101011110010001010101110
00111101100100011011100001101001
00111101111111110110110110110111
10111101100100111100001111101101
00111110100011101100101011001010
00111110001100001001001111010111
10111101100001111111001011110011
00111100011000110100010100110110
10111101101001100101001010000001
10111011010001010001110000001100
10111101100011011010100101111001
00111100010010110011101100111111
10111101101000110101011011110000
10111101000010100101000111010111
10111101011100011111111111011100
00111101101011001110000101101100
10111011000101010100100100000100
10111101100000100110010001101110
00111100010100101100000111111000
10111101000011110000001101100001
00111100001100001110111010100111
10111110001000000111100110011011
00111011011000001011001100001010
00111110100000111000000000100110
00111110001001101001010010110001
00111101001110011011001111001111
10111101110100001101101101101011
10111101110000111011001110101000
00111110010111110100100100111101
10111101010111101110011101011111
00111101000001110010101001111000
10111101101010010001110001010100
00111110000001010111000001110011
10111101111111000101111011000010
00111101010001100010100001100001
00111110000000110000110111101000
00111100100111100010001111101111
00111100101001010000001110110000
00111110001011110110110110100101
10111101111000011011011111011001
10111101000001000111111011101001
00111010101010100001000010001010
10111110000001011111011011101111
00111110001000000010110111111111
00111101000111011001101010100111
10111100111001111011000011010110
00111100110001011000011111100011
10111101101100101101001110100011
00111110011001100010011101010101
00111110000000100110010110001101
00111101001010000110101000000001
00111101110111001101110100001110
10111110001000111101000110101000
00111101001110110010111110000111
10111100100100001101110111010010
00111100101000100001101101011110
10111010000111011000010001011001
00111101111011111010110000011011
10111110001001011011100001100010
10111101111010000110010011011010
10111110000010110110100001111101
10111101101100000001111010111111
00111101000111010111110101101001
10111110100000110000001111000001
10111011010011011101100111000000
10111101010001110010110001000100
10111101110011111010011011111011
00111101001010001100101111011100
10111100001011000001101011001001
00111001010101101001010000001000
