10111110100000100010110100010111
10111101100000000011000011011100
00111110000100010011011001111000
00111110000010101011000011011001
00111110000100101110111011010111
00111101001101010011011100010010
00111101111010100101101100110110
10111011100001011111101101010111
00111100100010010100001000000001
10111101001110111000010011011010
10111011001000110010000111011101
10111110001100010000011011011110
00111110000001100101111000011101
10111101110011101010111101111011
10111101110000010110111110001100
00111101001111010010100001101101
10111101111110101110001000110000
10111101111101101011101010110001
10111101111100010000000010000010
10111110000011101101101110110101
10111101100010100000001010001000
00111101001000111010011111101010
10111110000001000011111101110010
10111101100100010000100001011001
10111110000001101111000011100001
10111110010001000001100110001101
10111110001100100100111001000100
00111101101001101001101000111101
00111110011011110111010011111101
10111110000000001010100000110000
10111101000100110111010101111110
10111011100100110111111101001100
00111110011000100101111111011000
00111101100101100100110001011010
00111101111000010011000001101011
10111100110010101111011010001101
10111100101001001001101010011000
00111101101011110111000011110101
00111101111110000010001001101011
00111101111010110100001110111101
10111101100000010100001000101100
10111110010011100010101011000000
00111101011011010011110001110010
00111000110001100011000000001100
10111101111100110011011100000110
10111101010110111111000110111001
00111110000111100101000111001000
10111101100011000111100001000010
00111101011011000111111100011011
00111011111001011010100001111000
10111100110001010111011111100001
10111100101101100101100001100100
10111011111001111001011101000000
00111101010011001110000111101011
10111100100110101110000010101110
10111101100001010101111000001000
10111101101000000101011001101101
00111101001101010111000000101101
00111101011111101010001010011100
10111110010010101100000011001100
00111101110011101011010011000100
00111101101110010111100000101101
00111101001111001110010101000000
00111110000001000111000000011000
10111101001011010000100111111100
10111101100101001010110100000010
10111101001000110101010110110100
10111110000100010010101000101101
00111101101100101011110000011011
10111101111011111111111001010000
10111101011100110100001111000010
10111110010001000010101100110101
10111101111100000001011101010111
10111110000110100111110000111011
10111101100001000011100100010111
10111101100001101010110111011111
00111101100101010110010110011100
10111100101110010001000001110000
10111110001011010001111110010000
10111101111101111011010101010100
00111101100111110100100000110010
00111101110111001100001011101101
00111010111101000001001101100010
10111110011100100110101000010011
00111100110001011011110101111011
10111101011101111010101010110101
10111101100011100011100111000011
00111101101011110011001110111011
10111101111111000110110001011111
10111100100100100010010010001010
00111101000000011101101111000101
10111110000100111100100100010101
00111011011111010110011000110000
00111100011000100100011010100101
00111010101110010101000110001000
00111101101110110101010000000111
00111101100110110010001100101000
10111101100111010101011100001110
00111110001011110001111110001010
10111110000100111110100011111101
10111101011101001000001100110001
00111010000011100111001110110001
00111110000011101101011100011101
00111110001000101011100010100111
10111100001001010000110110111100
00111100110110100110001101011011
10111101101000011000001101100100
00111101100111001010001101011100
10111110000001000010010111100101
10111101001000001010111110100011
10111100101110100100100001000111
10111110000100011010100011010111
00111101111010110010111100111001
10111110000011100000101011001000
10111110010001001100000111000011
00111101111100100001010010111111
10111101100011010111010110100111
10111101000001010111000001001010
10111101101110001111101111010110
00111101110110101010011000001110
10111110001011111010010001110000
00111100000000000011111011101001
10111100010110000111010010001100
10111101100110001101000010010100
10111110100000110100111000010000
10111101101010011001100011011100
00111101111110000010001101110000
10111110000101100100110101011011
