00111101101110010001111110010101
10111101111100111101100001110110
10111110010111000111010110110110
10111110000000001100001010111100
00111101011100101010100110100111
00111101011100110011110101000010
00111110000001001100111111011000
00111100111001010000100011100000
00111100100110110000000100010100
10111110010001111011001000101010
10111101010100011000100100000111
10111100110100111001010011110111
00111101001101100000011100000010
00111101110010110100001110000111
00111101100011100100001100100010
10111101111011000011011100000110
10111101010100100111000011111100
10111110010000101011111011111001
00111110000011001111111000111000
00111110001010010110001000001100
10111101111010110110111111000101
00111101100000001100100001100110
10111101010111001010101100101010
00111011110101001011010100110010
00111101010010101001111010011010
10111110000100110100101111000011
10111100101011001101101111001110
00111101010111100100011011100100
00111101101100010101010100010111
00111101001010001011111001100010
00111101010101100000100110000000
00111110000000011001000010110110
00111101011011110101101011101100
10111101100111111001101001000101
10111101000100010001111010010001
00111101111010000010111101101000
10111100011110100011101100000111
00111101111110100000011110100011
10111110000000111111100111100110
00111101000111000101001001111011
10111001110010110011010001110010
00111100100001000100111101011101
10111110100101000100110101000101
00111101111010101111101110010001
10111110010101101000011111000010
00111011100001010111111011001100
00111101000010001100110101101101
10111110000001110010100101011001
10111101000100010001001001001100
10111101111011100110101100000110
10111101011101111101110110011100
00111101101100000110010000001100
10111110011001110100011101100000
10111101101000011010011000110011
10111101100101010000011000001011
10111100011001011010110010111110
10111101101100111101001001111010
10111101111010001000101000100111
00111101001110010111100101111111
00111101101011010011101000111011
10111100100101010010011110000010
00111100010110001010010101011110
10111110001110100100101000110111
10111101010000100001001100011111
00111101111011001011011000011111
10111101110000000110100011100101
10111110000010000010111000010000
00111101101011001010100100000010
10111110001011111100101000111100
10111011110011110011111110110100
10111110011110111111000111000100
00111101110111110100110010100000
00111101011101100010111010010001
10111110010000010010000111000111
00111110000001101110101100101000
10111010110011001011011010000111
10111110001011000001011111001011
10111101101010100111110101010111
10111110010101110111000100100100
10111101001001010110101100011111
00111011111010101010110001010101
00111101111110100111110011001011
10111100010010111010100000010000
10111110101100010011011111000001
10111101100011011110100101101101
10111100111010001110111011011100
10111110000000000101110111000001
00111101100110001010000101001000
10111110000010100110100011000111
10111101010011000100101110010010
10111101111010000000110101011101
00111101101110111001100010101001
10111101111011111001011011111001
10111101100000111011001111100000
10111110001000001000011110001100
00111101111110111000100111011000
10111101111110111001011000000101
10111110011000001011000111101001
00111110000110001100100000010000
00111100001111111010011000001010
10111101101011111000110001111000
10111100000110001100100011001000
00111110000111100011101001110011
00111101101000010011000100111001
10111100110111000011000110110101
10111110010111001011110110101101
00111011001101010000110010001111
00111101101101110000100011110000
10111101100101011100100101010000
00111101100011001101011010011111
10111100000110100110001011110110
00111101001111001011110010111110
00111101010010011101010000001001
00111101110101001011011101111010
10111101110011001101001000011011
10111011101010000001001011110111
10111110000011101100000001101001
10111101011111111100010011011000
00111100111110001110111100111001
00111101100100111101001010111001
10111110000100001110001011101100
00111101101000000010100100010011
10111101100100010000100001111000
10111101001011100100010111110101
10111101111110010000010011110110
10111100001011110011011111110110
10111101111010111010110111101011
00111101110011010110111111110110
