10111101100111100110100100111101
10111101000110111110011110110011
10111110011001101110001101001100
10111110000101010001111101110110
10111110000111110001000000101001
10111101111001011101111101000010
10111110001000011111010011011110
10111100001000100011110101010111
10111110000011110010000011111101
10111110000100011000101011011100
10111101001000110111010010100110
10111101110000110001101101110000
00111101110111000111011110001010
00111101100011001111010001001110
00111101100100111000001111001011
00111110001001110101000011111110
10111101000010111110001110011011
10111101101010111100000010101101
10111101011000101001100101111011
10111110010100111011001110111011
10111101101100001110000011011010
10111100010000001100000100010100
00111110010100011000100101011010
10111101100000101001011010101101
00111011110000011111000100010011
00111101101110100100010101101101
10111110000100101010010110011010
00111101111010010101001010010011
10111101000000100101100000101100
10111101111000101100111001110100
10111101110001101010111100100000
00111101110001101110110000100100
10111101010101100111011101001000
10111101100011001101011010110111
00111100101100010110011101001111
10111110000011101001110100010011
10111101101110000111000101100010
10111101101111010110000010000100
00111101010101000111000100110111
00111100011100010100111111000110
10111101011110110111110111111110
00111101100100010010001111101000
00111110011000011001010011001110
10111101101011110100101010111011
10111110001000111010011001010010
00111100111010100111111011000111
00111101100101101110100100000000
00111101011100000111111010001100
10111011100110110010110110100010
10111110001100111011110100101000
00111101111010001100000000011100
10111110001000101000000110000000
00111101101100101100010101011010
10111100110011000000001010010011
00111100111010111100010011110111
10111101010000100011101000100010
10111101100110111110101011101111
00111100011001011111110101011000
10111110001001001011001110010101
00111101111011011100011000001000
00111110001001000101101000010011
10111110000101101110111000001001
10111101000111100000110101100001
10111110000000101011000101000010
10111101101111111110010110111001
00111101101111001110010011101001
10111101111101001111001101000010
10111110001110000101001101010001
00111101111110010011101011000010
10111101011100110101011110000011
10111101111011101010000101110111
00111100011011010010110010111111
10111101100000101000110100010000
10111110011011011001011100010010
10111100111001001011001010101001
00111110001000011100000001100001
10111110010101011100010001100011
00111101001001001010110100011101
10111100111000111110001000011010
00111101111111100100101101011011
10111110010001010110001000011111
00111011100100000110010011000011
10111110001000011110110110011001
00111101100001101100010111001101
10111101111110000101001001011001
00111101101110000110001001000101
00111101000100111111110001010101
00111101010010100101011101110010
10111101110110000111001000101111
00111101001101100111100011011000
10111101111101010110011001100111
00111101110111110110010010110100
00111110000011000110100001101010
10111101111111011100010000001011
00111110100101001000100001100011
10111101111111101111100100001110
00111110000111101001000111010000
00111101000010011101001010111011
10111110000001110010011001111011
00111101010000111111010111010101
00111110000110100010111111111100
00111110000001000110010100010011
10111101100011101001010011001101
10111110001011101101100110100010
10111101100010001110001100110101
10111110010011001110000011100111
10111100111010100010100000010001
00111101111000001100110000011011
10111101101100001100010110001011
10111101111110011110110011000010
00111100111101101011010001000101
00111110001011000110110010111010
10111101101010001000000100100000
10111110000010110001000110111010
10111110000101110011111011100111
10111110010100010100000110100110
00111101010000100011010011000010
00111101001010110011010100010011
10111110000100101001101100000101
10111101100101101110110010101111
00111100101001111110000000100100
00111101101100101000011111011010
10111101001111001000010111110010
00111101100001001110011111101101
10111110001000001111101001110000
10111101010001000000110010000010
10111101111001110110110110101110
10111110001001000000001110111110
