10111101111000000111100010110000
10111110001011011001000111001101
10111110001100111000111111001110
10111110011111101001011101111000
10111101111000011111000010010001
10111110010001010100010011000100
00111110000000111011001001101101
00111100100101001000011101000011
10111110001100001010000011101011
10111101110101000011110110100000
00111101010001010010010011111011
00111101100110101011110011011100
10111110000101010100011001110111
10111110100101100000001100000000
10111101000001000000111000111001
00111101001101101101000001000011
10111110001101001001001010101011
00111110000001001101011101100101
00111101000000011101111000110000
10111100101111111011110110001000
00111101110011010111010110100001
10111100010011010100111111000110
10111100100000100110110101000001
00111101011101110000010000010100
00111101011001010100010100011000
00111101111011111010111000010111
00111101100001110000110000001100
10111101101100001101011100011001
00111101101111010101000111000001
10111101101111010110110011111101
10111101000001101101011001100100
10111101101101110000111000101101
10111100101100000000101111110010
00111101100010110100011000000011
10111110000010011011101010000111
10111101101001110000011101001100
10111110001011100010011111100110
10111100011100011001100100001100
10111101011101011110000101000101
10111011111010010011010101010010
00111101100011111011110001010011
00111101010000101010010000110100
10111101100101101101111101100001
10111110000111111010010111011011
10111110010100100000111100110000
10111110000011101100110100111001
10111110000000010100001110001011
10111101011010000001100111110000
10111100101011000000110010110011
10111110000001100101100001000010
10111110010110101110001110111100
10111101110011000011101101111110
00111101101110011110011111100001
00111110000100010100011100010011
00111110000111011011101000111110
00111101000010000001010111000011
00111101000101110111011010000001
00111101100010100001100000101011
00111100111011011111101111000110
10111101010010110010010111100101
10111110000011111100000010010011
00111101111100111110000010101101
10111101000010110111110001110111
00111110000001100110110101000001
10111100010101111110010011111000
10111110100010100101000111001011
10111110011001110101001000101100
10111010110000010010110110100101
10111110000101000111101110011110
10111110011010000010100010110000
10111101101011010011000000001001
00111110000000000101000011010010
10111101100101100111000110111010
00111101101001000110000000000001
00111100110000100010100010010110
10111110001100111101000101100000
10111110001011011000000110000000
00111101000000101110010010110011
00111110000000111111101010101010
10111010000000001001101110100001
10111101100010111110100010110000
00111110000100010101110001000100
10111011110010011110111101011001
10111101110011110101001000110000
00111101100011110110000111001001
10111110000000111011110111011000
00111101000001010011111111101110
10111110000011011110100101011110
00111100001010111001011101111111
10111110001001000100000001110111
00111101010101101001101000111100
10111110010010110111001110101011
00111100110001100101100000101001
00111100101010111110010011111001
10111110000101101111100000111000
00111101101010101011100100101111
00111101000001101011111111111101
10111101101000111000000011100001
00111110010000100010011010111001
00111100011101010001101100101001
00111101110100011001001101101100
10111110000011011001010111100111
10111011111100101110010011110010
10111110000100011000110000111100
10111110000000000101001010001010
10111101000110111000111111100001
10111101101000101101111001010010
00111110000010100001001001101110
00111101000001000010111100001100
10111110001011110110010100111101
00111101000101010010001010110010
10111101011100000001000001000001
10111100011000011011101000001100
10111011110101100111011011111000
00111101010100010000000110111110
00111011001000000010111101011111
00111101110101000101010111000010
00111110001011011010111010011011
10111100111001100100101111000110
10111110011011000010101001000011
10111101101011011100001000000101
00111101100110011000000011111010
10111011101100110001000000111111
00111100011110001111010011111001
10111101101111101111101101101001
00111101100000111101110010011011
10111101110010000111111100101011
00111100101110110011111011101110
