00111101010000010011101000010001
10111011011000011110010111101101
00111110000110101011000111111001
00111101100110111011100111000111
10111110000111010110011000001001
00111110010110000110100000010101
00111110001010001011110011110000
00111011111011101100000001010111
00111101001010011011011101001000
00111101111100101100011100010010
00111010011111100100101000100101
00111101001000001001110000000110
10111100101111101110110000011110
10111101100001101000110111101111
00111011110010101000101110101100
10111101010011111100000101010000
00111100111010010010101101111010
00111100001001001011100011000011
10111101010010000001110011010100
10111100100100011010100100101010
10111101011100000100001001010110
10111101111110110001000100011011
10111101111100001011000111100110
00111110001111100101010100100111
10111101000111111011010110001001
00111101010011111001101000011011
10111101000010001100100100101111
10111101011010000011010001100001
10111110000111110100101010011011
10111100100011011010110100100100
10111110010000000100010000111111
00111100001101110010000010100010
00111101001000011110111111111111
00111011011100111000111001001010
10111101101101110001010001001100
10111101010110010011001001100111
10111110001101101111000001000000
00111101110011001011000000000010
10111110000001011100101001110000
10111101111100100011001000000001
10111101110010010110001010000100
10111110011000101010001011110010
00111101111101101000100001101001
10111110010000101000001100010110
00111100101111100110110111000000
10111100110100001001001010001001
10111101101110001101001110001011
10111101010011110100111000110111
10111101100111000111001100011011
00111011100011011001110100100000
10111101101111011010110000100111
10111101000110001001001101000010
10111101110001111110101001000011
00111101100010100010000101101011
00111110001000011110000100001000
00111101010101000101110010010000
10111101110110111110101100000110
00111110001010010110110001111000
10111101111010100001100110111010
00111100111111100101100011011000
00111110011010000000110100111001
10111110100000011001000111001100
00111101010000110011111001000111
10111110011010110000101000110000
10111101101000101001111000110100
00111110000100011101110011101010
00111110010000000111101011011110
00111101010100101111001011100010
00111011010000101111001100110000
00111101000001100101000111111111
00111110000000101001110001101010
10111100101100100100001011000001
10111110000011001110010111010111
00111101100100011010100101001001
00111101010000101101000010010010
00111101010111001110100000010010
10111100011111111010110000011000
10111101100111100101111100111010
10111101110111001010110110110100
10111110001101001111101011100111
10111101100001111110011010000011
10111101011000010101110101111110
00111100110000100001001100001111
00111101110111010111010001111101
00111100001000011011010010100100
10111101001101011100000000001001
10111101110010000111100110110101
10111100111110011111011100011010
00111101000110011011111101111110
10111101001011101100111010001010
10111100110110101110101000000100
00111101000001101100111001011011
00111100111111100101010101011100
00111100111110101110011010000010
00111110010011100000101000001011
00111100111101111001011101001001
00111110000101110110100000100101
10111100110110011011010100110111
00111101101000001101100001110000
10111101101000001000100101011011
10111110000001100011101010101011
10111101100110001000101010101011
00111101111111101100111111001111
10111101001000001001110110101011
00111101010010111011110111101010
10111110010101110011100100100000
10111100011010110010001111110000
00111101010010011000000000000010
10111101110110110111100111101010
00111101001000010001000011000010
00111101000111000100101000110110
00111110000000001001110111100100
10111110011100110010111100111111
00111101011100011110101010000001
00111100100111111000001001111001
10111110000101111000110000100010
00111101110010001111010111101011
00111101110010011001101101110110
10111100011111101010110001001101
00111101110100010010101001100001
10111100101101000000100000100100
00111101010100001000110100111011
00111110010000100010010000110111
10111101101111101111011000101101
00111110000000000110101001101000
00111101111010100010101110000001
10111110000001011111110111000001
00111101111111010110111110011110
