10111101111111000011110111111111
10111101101110010111000000011010
10111100010010011011000110001001
00111100011010111001000001111111
10111011111111000010010111110001
00111101000101011010111100011001
00111101110110010010111110001101
10111110000100110011011100011010
00111100111001100011000101111111
10111110001000011001011010001001
00111101010101100110010101001111
10111101111000100100110000010010
00111101000111101100001011101100
10111101111011001001101111110100
10111101110110111101010110011111
00111101100100111111011110111100
10111101111110011011000010010100
00111100000000001000001000010101
10111101011000111000110011101000
00111101010100111000111010000100
10111101011101100001101001100000
10111101110101111100110111001000
10111101101110101010101110001111
00111110010011111001100010100010
10111101111110011111101110011001
00111110000001010111000111101001
00111101110001010111010010010010
00111101101010011010101111111110
10111101101011100010100110111011
10111110001001000010111101110010
10111101110011110010111010100001
10111110001100000001110010111011
10111101101011100001001001100011
10111110010001110010011101111110
10111011110111011100001101100100
10111101100111101011111010001011
10111101100111100101100111100001
10111101010010001110111011100011
00111101100111000010100101110011
00111100101011101010001010011111
00111011101011110010000111101000
10111101110101000000000111010010
00111101111100101100101010111110
10111101111100010110001111000110
10111101011010001011101110110000
10111100110001111011010000000111
00111110010000110010011100111001
00111101111100010010110101011110
10111101000011011110011000111011
00111100101000100100001110110010
00111101001111100110101000010110
00111110000111100110000111100111
10111101101010111001000011100110
10111110000100011011001111001010
00111010101000010010010101001010
10111101010101111111011000010110
10111100110010101110000100011010
00111100011001110001011111111011
00111101111100101000011011100100
10111100001100100000011011010111
00111100011010001010111001111001
10111110000011000110101100000010
10111101100101011011011100001100
00111101101100110101100100011000
00111100110010011111010100100110
10111101100000011011100111111001
10111101111000010111001100101000
10111101100010010101101111110001
00111100110100010111110000010100
00111101101010011010010101110110
10111100110001001110011101010010
10111101001000110011110010110000
10111110010011010000000110110010
00111101010000010101111101110010
00111101001001100100101110001001
00111110001010100110100100111110
10111110000010111010010110110000
00111110000010111101011111101010
10111110001111101100100000110111
00111101000101010111011100110011
00111100110110010011010111011101
10111101010101111010001000110000
00111110000001001110010101110100
10111110011100110111001110001100
10111101000100100000101100001100
00111100111011110001000001001000
10111101100001100110101100110011
10111100100100011011110000010111
10111101011111000110111000100010
10111101101010100011000110101111
10111110000100101110111011001000
10111101011010010010111010100011
00111101010001111101110001111010
00111101100011011000111001010000
10111101001011100001011100011100
10111101010011000100110011010000
10111011101010011111010011111110
10111110000011100010001001011111
10111101101001111101101000000000
10111101010111010011011001111101
00111100011110101101011010110101
10111101110011111000001001101100
00111101100101010111100111011000
00111100111110001011010011010110
00111101111000011010111111000001
10111101101001101011001001111110
00111101101011001000000011100001
10111110001000111000101011011001
00111110001010110111000000011001
00111101100010111000010010001110
00111011110101000111010000001111
00111110010011100010111000011100
10111101100111010101100110100100
00111101101011101110100010110001
00111101011011111101100110111100
10111110001000010010000110011111
10111101000010010001100110110001
10111101111101001011010111100111
00111101101110000111011110001011
10111101101101000111100100000000
00111101101110001011110101101010
10111110000000011111110111010000
10111101101110110000110100111011
10111110001000111010111010011101
00111100010000000100011110110101
10111100111100110101101000100000
00110110101110101100101101111100
10111110010010111110101000101110
