10111100101111101010001001101011
00111110010001011100100011011000
10111100110101101000111101111000
10111110000010001000111111011001
00111101100001101001101011000101
00111101110000000110010101111001
10111110001011010010101111010011
00111101100111110010110101110010
00111101101101001101100100111111
10111110000001000011010001010100
10111100111001011111011101010000
00111101111101011100110101010000
10111101100000000100100111001101
00111101111100000111110100000010
00111101101111000101111110010100
10111101101111001101001100100111
00111110001000001001110000010101
00111110000111101101011011010010
10111101000001011111011011111000
10111011101011101100001001100011
10111110000010000001110101000010
00111101100101011000111110010110
10111110010011111010000101010010
00111100100101111000000000011100
10111101111101011000011001101110
00111101110101111010000011110000
10111101010011000001100011011110
10111110010010111010101011010111
10111101110011110110100010001010
10111101101110001000010100000100
10111101010010101000110111000101
10111110000110000000001010110001
00111110010011001110110100011110
10111110001001001001000101001101
10111110000001111101110010011010
00111100110111001111111011100001
00111110000010000000111011100101
00111110010100001010000101011101
10111101011011101110101010111100
10111110000011010011100001111011
10111101100001111100110110110000
00111101101000111101001000000101
00111101100001100011000010011110
00111101110111111101011100101000
00111101111000110101000001110110
10111101111111000010011110111101
00111100001000011000100010000000
10111101000001101011100110010101
00111100110110100000111001100111
00111100010100011010010011000010
00111101011100000011111101000100
00111101001101100100011100010001
10111110010101000110111000111001
10111110000110111011100010010111
10111101010101011110001000100111
10111110011000011011101010101000
10111110100101110010111100111101
00111101010101011011011001101100
10111101100101111111010110010001
10111101000010110001011101111110
00111101111111011110100010011001
00111011010010111100010110011111
10111110001000011000011100011010
00111011101100110111000001011000
00111101010001001100000100101011
10111110001010111010101100011111
10111101100011111111010010000010
00111101010001011100000001101101
10111101111011000100100110100111
10111101111000000111111110000111
10111110010010001110011001100000
10111100010100111000101001101011
10111101101110101101010011001100
10111110010011101000000110110010
00111100111100101110100001001000
10111100101010001001100001011101
00111101010011100100001110100111
10111101100011110000010101010110
00111101100010111001001000100011
00111100101110111111001010010101
00111101000011111011001011001000
10111110001100110110000100011000
10111100000110111001000010100001
10111110010011011001011110101111
10111110000100010110000001001011
10111101101001011011111001111010
00111101011000111000101111001001
10111110000100110010100110011001
10111101110110001001100011000011
00111100111101110110101110001011
00111110000011111010110011010100
00111101000101111100011000010000
10111110100000111010001010101010
00111101100101101000001010100010
00111101111110001000011011000000
10111101111100100000101110101110
00111101110000110011101110000011
10111101110100110011010001101101
10111101111010000000111001110011
10111101101011111010001100101110
10111101100111010011010110100101
10111101110001010110000000011111
00111101010100001101100011000010
10111110101000011000011001000110
10111110011111011100110010000111
10111101100110101110000100000111
00111100110101001111110110110100
10111110100001001100110010110010
10111101110000111000100101010001
00111100110011000001001010110100
10111100010011101000110001000101
10111101111110101111001001100101
00111101101000101111010010101001
10111110000001000010110110110001
10111110011000001100111100011001
10111100100000001001011101011001
10111101110111101000000100111111
10111110001110011101100101101111
00111101011001100001010011010001
10111101001111110111101111101110
10111011100111001010001000101110
10111110000001000100101011011110
10111101011101010000010010100010
10111100100100000100110010100110
00111101111010101100111100101010
10111110010001011000001101110000
10111101100111100101101111001011
10111101110101100111111101000100
