10111101110100111001000010110010
10111101110000111010000111011001
10111100100011111010001010101010
10111100011100111011110111010111
00111100110000111110000011010100
10111101100101010100001000100011
10111101100111011010100011000000
10111110001000010000001101010001
10111101101011111100101110100110
10111101100101011011011111111010
00111101101010001010010110110010
00111100000101110001010111010001
00111101100000111101100111100000
10111110010001001000100011110111
00111101001000010010010001001011
00111100010001010101110101001000
00111101000100000000110001011001
10111100100100111111011111001101
10111101101000001011010011110011
10111110001111100011111000010111
10111110000000010001110111010000
10111101100011000101100001111000
10111101101011001100101100110110
10111100101111000100000110101011
00111101110000101100100010001110
10111101101111011001000000100001
00111101010001101110100011111110
00111101001001000000011010011110
00111101010100111110100110000010
10111110000110100100001011101010
10111110000110000010010010001101
10111100100000001100101101000111
10111110000110111011110111110100
00111101100011110000011000111100
10111110000101100000101010011000
10111101110010000010110101001010
00111101101010010010011010100010
00111101010110100010000000011001
10111011100100011101101001010100
10111101101110001100111010100111
00111100111110111111110100001101
00111100110011001010110001101001
00111100111101111111000101000011
00111101111111010111100010111100
10111101111101100111011100000011
10111101110100101010010111011010
10111100101111100000011111000111
10111110001000101001110111101101
10111110000010010001111100000001
10111101110101010011000111101011
00111100111000010001001111100110
00111100001011110001000101000101
00111101100001001100111011001101
10111101010000010101010011101110
10111110011000110110100100111001
00111101100001110011011011000000
10111101011001011110000110110100
10111011101101100101001011010110
10111110000001001000100001110010
10111101111000101100111100101101
00111100111111100111001111000100
10111101010101001010000011110110
00111100110000010100011001110011
10111101101011000001001010100001
10111100011100000111010100000010
10111101101010001111001110011010
10111110000110000100100010101101
00111110000100100110001101100000
10111100011000000001010011000110
00111101101110100110110100000110
00111101111100110101110100011001
10111101101110111001110111000100
10111101011011010001100000100001
10111101100111000011110011101011
00111101110001010000101100001010
00111100100001001000111001100100
10111101000010000011101110110011
10111110000011000010011110010011
10111101010101111000101111011000
00111100010000110010001100011011
00111101110010100100001100100101
10111100100101101110011011001001
10111101111001011000101000010011
10111000101010101001100001000111
10111101110110100000000011101111
10111110001000011101001100100100
10111110000011100011100101111010
10111101111110100010110100011110
10111101001011001101110101011001
10111110000101100011010111101111
10111101001011001111010110010111
00111101100000010101011000010011
10111101111010101101001110000111
00111101100010110011010001000110
00111100100011101101101100000000
00111101000000010001010110110100
10111101101100001111011010011011
00111100111100011010001110101000
10111101010110111110011001000111
10111101111100000110111110001010
00111101101010111100011001010100
00111101001000001100010011101010
10111101101100110101100111011101
10111101010011100110110001011101
10111100101101110110001011111001
00111101011010011100110001111111
10111101101000010110101010100101
10111110010001100010001011011110
10111101111100011000110101011001
10111101010110001000100110110011
10111100010101100100000011000010
00111011100000101010100000001000
10111101001110111000010110010010
10111100111101000010110011001101
10111101010101001011000010011101
10111100110100000001001100100111
00111101100110001111011101011110
10111110000110110101111111111111
10111100000110110001011100110000
00111100010001001000010010100000
10111101110010100101100100100010
00111101011111101111111000011111
10111011100100010110110001010011
10111101000000111110110101101001
10111101111011111000011010001000
10111110000010011010110100011010
10111110001010010111101010011100
10111101101110010110001010000110
