00111101110001010100000001011111
10111110000101101011011111011010
00111101010110000000110010001101
10111101111000101010100011100100
10111101100000000001110011001110
10111101110101000100001100011111
00111101011110011011011010100001
10111101000011011111100100111111
10111110000011111111111011010001
10111100010001001010111011001111
00111110001000001101010101100011
10111101111011110100101011010100
00111101111111010100001111101001
10111110010000111001001110111100
00111101111011010010001010011011
10111101010011110010100011001010
10111100101000101111001110111001
10111100100100010100101111101111
00111110010100001100100001011000
10111101100101010111110111111011
10111101110011101010111110111111
10111110010110001011111111100001
00111101100000010011111101101101
00111101101111100100111111101111
00111101111011101101001010100001
00111101100111100100110100010011
10111101100101001110001000101101
10111101111001111101001011000100
00111101111111110001001010011110
10111110000100110000111011110000
10111110000011100010110111001101
10111101110010001010001001011110
00111100101001100000001110001111
00111101101110001011011000110110
00111110001100010100100011100010
10111110001010011001001111100000
10111100110110011000011010101001
10111110000110001011011011111011
10111110001110111100110010000111
10111011100010001111110001000001
10111101010000000001101010011010
10111101010010000101101101011100
00111101101010010101000100111100
00111100101111100100011011111000
10111110000011011011101000010001
00111101001100010010100100001011
00111101101111101100000000011110
10111101001101000000011111101010
00111110000101000100111111010010
10111101111110001111010001101100
00111110010011010101000110110000
00111101100010100100101001010110
00111101110011011010010010011001
10111101111000100101000111010010
10111101001101001001111111000110
00111011000011000010001011100111
10111101101000101100011000000001
10111100011010011100001011000001
10111101111100110111000111110011
10111110001110101101010000110000
00111110011111110110000100001100
00111011100011111110000110100000
10111101001101000000101100110011
10111101001001010010111100010101
10111101110010100111111100111001
10111100100111010110011000001110
10111100110010110011110011011101
10111110010100101111111100011111
00111110000001011101001010110111
10111100110001110110011011110100
00111101001011100110000000011100
00111100110000011110111010101001
00111101100111110011000011111000
10111110000000000001011001001010
00111101100010110101111000011000
10111101010011111110000101010011
00111100111001001000100110111111
00111100101010010000110000110100
10111110001111011010111111111000
10111101011100010110011010010010
10111101110011101110001001010101
00111101101010100010100001100011
10111110010011101101110110100000
00111101010111101111000100100010
10111101100010100110100011001110
10111101110011000000011111001010
00111011011010000001110101100100
00111100110010001111101100110000
00111100101011101101100011100000
10111101000010010010110101000111
10111110011110111100000000111101
00111101001100100110011011011101
10111101000100010110000000101101
10111101110011100010101101111110
00111101011101001010100011110111
10111110000100101000101011101100
10111100110101110111101100000110
10111110011011010001011111100001
10111110001101100010001100010001
00111110010001110101101000011110
00111110100001010011110000100000
00111100110000100100011111110000
00111101001010111000001110000100
00111101000010110010101101001010
00111101100101010011001000110000
10111101011110001101100001101001
00111101110110000100010111101101
00111101100011101001010011101010
10111101001111110000000111110110
10111011100000110000000111110011
10111110001101010001111110010000
00111101000100110110010001010101
00111101101111010010011000010110
00111110000110000100111011111000
00111100011000100000001001111111
00111101100101101000110010110101
00111011100001010111111101011001
10111110000001001010100010000100
00111110010100100000101110100111
10111101101101011110010011000010
10111101001010101001011101000111
00111101000110010001101001010001
00111100011100101101100101101001
00111011111011001100110010110001
10111101100111100100001001110111
10111110010010011101111101111110
00111110001110100111101101100000
00111101101000010000110011011000
