10111110001000001011100111011001
00111110010111100100011110001111
10111110101000101000000100001100
10111101110101100110111101010010
10111110001001001100011111011101
10111101001011111001010110100011
10111101100101011001101101010111
10111101000100101000001011001011
10111101110110111011100100010101
10111110000100010111011000011011
10111100111101011101111101100111
00111101111000000000110110001100
00111101010011011110101111100110
00111100101110110101101011001001
10111101100100101101010010001100
00111110000101110101011010001011
10111110001100001001101010001000
10111110000011010100001010100100
00111110000000100011010100101010
00111101010000111101011011110100
00111100101010011001101010100100
10111101100111110000010000000110
10111110000100100101011111010000
00111100011100100101011011000101
10111101000011001101100111101111
10111110011001101000101001101111
00111100111101110011000101010100
10111101001100001010011111001110
10111101100010001001111101110010
10111100101110110101100111101000
10111101110111001000010001011000
10111110000100010000010101011001
10111110010001100101001100001100
10111101010010001111010000101011
10111110001011011111100100010001
10111110010010111100011101010100
00111110001110001001101001110011
00111100101110100110000011100110
00111110010001001110011111100111
10111110010111011111110110100011
10111110011101101110110110101011
00111100011110011111011101100001
00111101010011110100110100010011
00111110001011100010101101110110
10111101110111110010001001001100
10111110001110100000010110111000
10111101010101101101001011000101
00111110000011111011110011101110
00111100011110001010001000110010
10111110000001101110100100000100
00111101100001100011010011101100
10111101100111101011111001111111
10111011100011000000100110110001
10111100010000111101010011010010
00111101100111011101010101101111
00111100111110101000010010001101
00111100011010010010111101010111
10111101100010010000001000011100
10111110011001001001011101100010
10111101100010110000100010011010
00111101000001100100100000001000
10111101101100101000010010111110
10111110001111001111101111010110
10111101010110010100110110001001
10111101111110011011110010111001
10111100010101001001111111010110
10111101101001110011011101110101
00111101001101111101001001100101
10111110001111100110011111111011
10111101100000010110011011111100
10111101101111111000111110100111
10111101101101101101111110111001
00111100011100000010011111011011
10111101100110100000001100101100
10111110001010011011101110100011
10111100100100001110011011011001
00111100000100111001111100111100
10111110011101000110011110101010
00111101110001010011001101011111
00111011101010101101101101001000
00111101110111000100001001000001
00111101011000011001111000100111
00111101010111101111111010011110
10111101010011010111100101101010
00111110000010101100001100100001
00111101111101111010110111010111
10111110000100101110110000010100
10111110000110001110001000101010
00111101111100101111001110101100
10111101110111011101001101001111
10111101000011111101100101100101
00111100100011101101101011100111
10111110001010001101101111111100
00111101111010111100011101111001
10111101011011010110011101010100
10111110000010110001111000011100
10111101100111001010100010100100
10111101110011011110001010001101
10111110000110010001000111110001
10111110000001000100100101111010
00111110001110010100000111001001
00111101010110011010111001000011
10111101100101011111110001110001
10111110000001001111011101111101
10111110001100010110000100100000
10111101101001100110000100111010
00111101101010111101111111101011
10111101110100111010111110000000
00111101111110001101101100110011
00111101000011110001011110101001
00111110010110100111000001100010
10111110000000100100000111000110
00111101101100111110101110001011
10111110000010010101011000001101
10111101100010000101101100010000
00111101111101110110100101000011
10111110001001000111110101111000
00111101110000110010010011101101
10111101110100101110100000001001
00111101100111001001001000110101
00111101110110111101111001000111
10111100101100100001001001011001
00111110010100000000011011000010
00111101100111000011010010101011
10111101101011011001000011001111
10111101110101111011110010001100
00111101111001001011011110000001
10111101100101100101011101001001
