10111110001111000101110011111101
10111110001001010111000101001011
10111101101000101100001011100100
10111110000001100110010110011111
10111101111100011010000100101001
00111101001001100011100000001001
00111101101101101101101011010011
00111011010111101100011010101111
00111101110110001110010101111011
10111101110011101011101001001010
00111100000010110011011010000011
10111110100000001110101001000100
00111101101110110000111001010111
10111110000011000001011101001111
10111101111000000011110000111001
00111011111001100010111001001110
00111110000000100100110111101110
00111101010111110100100000111010
10111110000001100000111110100011
00111110000000110010000101110110
10111101100000110001010001100001
10111101110110100010000001001001
10111110000100101011111101111000
00111101110110000101101011111011
00111100101011101011001011110101
00111100110101011111111010111001
00111101000001010101110001011111
10111110000000100000110011001011
00111101001110110011010000111111
10111110001100111000011110110011
10111110001101001000011101110010
00111110001101001111101001110101
10111110001101001010001111101001
00111101101111100000011000001001
10111110011010110000010101101100
10111110000011001000010010011001
00111101100100010101101111101000
00111101110001111110100111000100
00111110000000000010111111101110
10111110000110010111011101110001
10111011101101111001010000000000
10111101010011111011111111101100
10111110000000101010101000111110
00111100000011010000001110001001
10111101010110001100010101100111
10111110001001001010101000001111
00111101010000010001101110100101
10111101001101101111111001000001
00111101001001010110111101110001
00111100000011000001010001111001
10111101000110110110101010111011
10111110001011111000110001110000
00111110011000101001010101111011
00111101110001011001100010101000
00111101100110001111101001010111
10111110000000111111111101011001
10111110010110001010111001001000
10111100110000110011100000111111
10111110011010101000110100111111
10111110100001010100100101001110
10111110001111001010110011001001
00111101010000000001001101011110
10111101110111110101110011010110
00111101110001110110010000001110
10111101001011011010000010110101
00111011111100010001110011011110
00111101100001111000110101100000
00111101101010100010010110100000
00111101100111010010001110100111
00111101101000111011100101010010
00111100100001100000110011001001
10111101101011001101001010100000
10111100100001011001101101010100
10111110001111110110011110100000
00111101101010011011101000011110
00111101001111001010011001111110
10111011111001000011000101101101
00111011100011001001111100111100
10111110010000011011101000111011
10111101110100110100110011110111
10111101101111100110111100011000
10111100000101010010010010000010
00111101110011010001101011010011
00111101111111111101100111110010
10111101000110110010011001110000
10111010010001110011000101100111
00111101101110110111010000000100
10111110000101011100101100110010
00111101000100001101000001101011
10111101100001001101110000111010
10111101001001110111111000010011
10111110001010111001100000000001
00111110010110101010001011111110
10111110000011101100111110101100
00111110000111110001110010011000
10111100110101001010010111011000
00111101100010101001111001101001
00111101111101010100010001100111
10111101000010000110110101101000
00111101011010011101000110010100
00111101000111001111001000001010
10111110000011011011110001100110
00111110010100110001010010001010
10111101111011100001011111010110
10111101001100000011101101000001
00111101110100000000010100000000
00111101101000011110101111011111
10111110000110010000001111101110
00111101111001100101011011010111
10111101100101110111111000101101
00111100100010001001100001110000
10111101100010110100100101000100
10111101101000100011110101110101
10111011110010100101111100011010
00111101000011100110010000000110
10111100111111101111101010010001
00111110000101010001100001101001
00111110001001011111001110011011
10111101011111010100101110100100
10111011100101100110111000000010
10111110001001000111001111111010
10111110100001000001110011000110
00111101101000101110101111100010
00111101110101010000101111001111
00111100110111100011001000101110
10111110010100010001001100101011
00111011110111001011011011100101
00111110000110100001110110101011
