00111110000100110100010101111011
10111101111011011100010110010011
00111101110101010000111001001001
00111101011101000100000011011100
00111101110100010110101101111010
10111101011110110110100000011000
00111110001000010011011000000101
00111110011000011010100011011011
10111110010000100100001111001010
00111010100010010010101101010010
10111101110000111111011101000011
00111100100111101010010010001111
10111110001111010100100010100001
00111101010000110011110011101000
10111101000000110110001100110110
10111101100101011100001110011011
00111110000111011101110110010111
00111110000000010011111010101100
00111011101101000111001000000110
10111011100000000000000111000111
00111101001101000001000010001010
00111101100101011111110100110000
00111101110001100101110010100110
10111101100100100001000100010100
10111110000111001011110101001011
00111100100110001100011000001001
00111110011001110111001010010011
00111101011101001011101111101001
10111110010110110101000100010110
10111101101001100110111100011100
00111101010110101111000111001110
10111101101011101011111000101011
10111101011000001011100101011010
10111101111111011001011101010110
10111101100100010010111011010001
10111110001010011001010010101001
10111100111011001101000010110011
10111101001110010010000111010101
10111101001111010001000011111000
00111101110100001111100100000101
10111101000000001010111101001111
00111101001111000110011111001000
00111110000110011111001101111100
00111100100010100000100110001011
00111101011011001011001111001100
10111101101001010001100000011100
00111101010010010001100011100111
10111101001100101001010111011011
10111001010000001011101001101000
10111101011000001011000000100001
00111110001101000011100101111101
00111010110111011101100000010110
10111100111010001101100000101100
10111101111110110011011011100100
00111100001100010111101111001111
00111101100100001110101001001111
10111100100011001010010010111101
00111110001100011011111111001110
00111101111010000111001101011000
10111010101101110011001110101101
00111110000010000101001110010001
00111101101000101001110100101001
10111011101110000100010011011110
00111100101011000110000101011010
00111100100100101110011011110101
10111100100100111110101011000000
10111101011000111101000110000011
10111100001011110110111110101010
10111101101110100101101110110011
10111101101001110010011111101011
00111101100011100011111000011100
00111101000011110101110101011101
10111110010001001001111111010011
10111100110111110010001001011011
10111101001110010101111110010000
10111101101101101011110001100011
10111101110000010101011111111001
10111101101001001100100100001101
00111101110100111010010001001011
00111100010000010100011010101100
10111110010110011110100110101011
10111101001101110111101111010101
10111110001100000011110011001001
10111110000001001001010000011100
00111100011011110011001110000110
10111011100110010100010001001110
10111101100110010011100110111111
00111101000011010000001011000010
00111101100000001011011111011010
10111011110011101011100110100110
00111101101010011100001110011100
10111101011011000001010011110011
00111100111010010011101101000010
10111100100110101011110000100110
00111110100011010000010111001000
10111101101100010001010100110101
10111101101111111000011010110111
10111100101000100111011011100110
00111110001000111101111111011100
00111100101011010101100101110111
00111100110010001011100100101000
10111101010001101100001010000101
00111101100110111010111010010000
00111100111100000000110101000100
10111101100111111000111101000111
10111101101111111000101011101001
00111101110100011001100101101100
00111101000110000101111001010001
00111101100010000010100010010000
00111100011101001110100010010011
00111101011110011111011111100010
00111101111111001101110101001111
10111110000101110111100101110111
00111110001001000111001011011100
00111101000111000101110110000001
10111101111111000110000110101000
10111101000010011110011101101100
10111110010111001001011111011100
10111101110000100100010111011010
00111101110001001110110010110011
10111100011011001111010111011110
00111110001001000010110010100100
10111110000100000110000100101111
00111101110110010101110100011001
00111110001011111000100100101000
10111101010001110101001101011000
00111101001100101000111000100100
00111101001101010101100110001110
