10111101001110010001010011110100
10111101111110110101100010111100
10111100100111011101101011000110
10111110010110010010001001000101
10111110000001110011111010001111
10111110010001001001110100111000
00111011001111111000101011100110
00111101000111001101110001010101
00111101101010011101111100100100
10111101000111000100111011110100
10111110000001111100011000100011
10111011111000101110111110101100
10111110001011111001001011001101
10111101100001010001100000100011
10111101100100101100101011000001
10111101011011010100010100001000
10111110000010011000101111000011
10111100100111000001101010111110
10111101100011010111100010100101
10111110001000011001100011010100
10111101111011100101010010111110
00111110000001101110110111001001
10111011111010110000000100011101
10111100101010101001010110111111
00111110001000001000000100001011
10111110001000111101110111100000
00111101101000001111100101010000
10111100001100110110001100001101
00111110100000100111011100010010
00111101100000100110000000011111
10111100011001101101101100001011
00111100011001000011100110110101
10111110001100110001011110111110
10111100101111001100110111010111
00111001110101001101110001101110
00111101110010010100000101011100
00111101000110010110100101111011
10111101011100011001101110000011
10111101100110001000001011010101
10111011001100100000100111110011
00111011011000101001100011010000
00111101100001010010101001101001
00111110100011011111010001100111
10111110010010100000110010111100
10111101000000000000000011001001
10111101001100111100101111101101
10111101111001100011000100100100
00111110000000111000100001110011
00111100011111110111001000111000
00111101011001100111110001111000
00111011011010110010010001110101
10111110000100001110110110001111
00111110010101101110010000100101
10111011010111101001011100000110
10111110010011000101001101111101
00111100100001100000010100000110
10111110000000000011000011101010
00111011110000011110100000010010
10111101111010100000000001010100
00111110001011110101001010100110
00111100101000101101001111011111
00111101110100000010010111000111
10111110000001100000110111111001
10111101101001010111101001100000
10111110011111100110001001100011
00111100110110101010000011001101
00111101101111111001001110010110
00111100101011010001010010011010
10111101001110011110010000010111
00111110000100111111100001010010
10111110100011111100000010101010
10111101100001000101000011011101
00111011110010101101101001000000
10111100100110100101010001101011
00111100111011011111000100010111
10111101000111111100110001110011
00111100111101101000010101101110
10111011011011010011010100000011
00111011101101110011001111010010
10111001101110110010011011001010
00111101000110101001101010000110
00111110001001001100010111001000
00111110010110000011101111110110
00111101001001100000000010011100
00111110001000011111011111111110
00111101101111101110100111010111
10111101101110111011100101011001
00111110000101111011000101011010
10111101011010001011010100001100
00111101111110110010000111101001
10111110010111010110000101100111
10111110011100111110000101101100
10111101110001011110011011010011
10111101011011001111101100000111
10111110000111010010101010111010
10111110000111000011100101000000
00111110000010100010000010100001
00111110000010101100000100000011
10111100000110101011101000111000
00111101000101001011101000111001
00111101011101110110001000111011
00111101111111111000110001010100
00111110000111101001000101110111
00111101100110000000001011100000
10111110010010000000000010110001
10111101011101100110100010001000
10111110011100100000110110100010
10111101000100101011000100111101
10111101101110001101110010100011
00111110010010100101101001100100
00111100100101101111010011000000
10111110000111000100010111111010
10111101101011100101111100011111
10111101100100000000110011110101
10111101100100010011001111110110
10111110010011110100100111000010
10111101011000010000000100011000
10111101110010101110110100101001
10111101111010011010000110010110
10111110001001111111000000000001
00111100111011101000111011101011
10111101011110001000010010000100
10111101001010001100111111010101
00111101110111010100010001011111
00111011001111010001001011101001
00111100101011111001000101000101
10111110010001110100001111011101
10111101100111011010101100111011
