10111101011110000010101001111110
10111100111000010000000111110010
10111101101110111101101100001010
00111101101011011010010001101000
10111110011101000010011010001000
10111110000000110101100000001000
00111110001000001111101011000110
00111100010100111000001001111101
00111110011001110010000111110000
00111011101000001001100101001000
10111110001101101000010011100101
00111110000101100001000010110001
10111101011010110110111101000010
10111110100111010000000101010110
00111100110010100000010011110011
00111101111011000101000110101100
10111100101110111101110110110110
10111110001011011000110001001101
00111100010101001100111000011010
00111110010110001001011001101011
00111101010111011111000001110000
10111101000010101000111101110010
10111100111001100110011111100010
00111101011110111010100001101000
10111101001110000111010111000000
00111101110111010011001000110101
10111101111100100111100001000010
00111101001110100111110010001100
10111101100000101010000111001101
10111100110010110000010100100100
00111110001000010101010010000011
00111110000010110010010011100101
00111100100001111101010011101010
00111100010000110110111010011110
00111100100011111000001001111010
00111110001010100100110110000101
10111101011010001111110111110011
10111011000000010100111011110011
10111100101101110010000110110000
10111101101100101001001111000011
10110101101100110100101110000000
10111101111011010110111110111111
00111101011101000101110011010101
00111100101110111100000111110010
10111100001111110100101001100011
00111101110101010101011101000100
00111110000110000100010000101110
10111101100011111111100111111010
10111101111101000011110001011100
00111011101100010111110110110110
10111101100011111110100100111000
10111101101011010111010111010110
00111110000011110000011111000000
10111110100010011001000000100011
00111100010111100100000110101001
00111110000011010011101001001110
10111100000111011010111010000110
00111101100010010111001011101110
10111011101011011011001111110100
10111010101001111101001000100101
10111101011111000010001001101110
10111101110010011010010101110000
10111101000000111001100001001101
10111101110001010011110010011110
00111100101110111010000001110111
10111101000000010001011001000010
10111110001111000110010001001111
10111101011001000111110100100110
00111101100010100100000101101010
00111101101101010011111010011111
00111101101010111110111110110111
10111101110001101010011111111011
10111101001110011010100110001110
10111110001010100100000100000001
00111101001111000111010010000001
00111101111101010100110001110111
10111101110000010111100111100100
10111101110111001010011101001101
10111110000100001010010101111011
10111110000001110001101010101110
00111110000001001111101110011011
10111011101010100111001111110000
10111101101100101000101011111111
10111101111011100111110111110000
00111101011111110111010111010010
10111110001001101011010011100001
10111101100010001100011101111001
00111100100000111110010111110010
00111101100100010110010001011010
00111100101000101010110001001110
10111101110001010100001100010010
10111110001001010011101101010000
00111101110111101111010111010011
10111010111100101101001010010011
10111100100000010011101001001000
10111101011101000010110000101011
00111100110100111011011101011011
00111101010001111101000001110000
10111101000001100001100010100100
00111101000100011100000110111100
00111110000000111001010011111000
10111101101111100001011011010011
10111100101000001010011000101110
00111101110111101111100001110011
00111110000101101101111011011111
00111101111100000101110010100011
00111101001011000001111011101101
10111101111111000111010011011101
00111101101011010010010001110111
00111110001101110101101110000100
10111110010101011101110000100110
00111101101111000001000000011000
00111110000110001011111111100110
00111100101100101110101001100010
00111101010100101010011110001011
10111100101100001100011011001000
10111101010101111010111001110010
00111101100010111000110001010000
10111011001110110000100001101101
10111110001001011010111100000110
10111100010011101100100010000001
10111101000010010101001111011001
10111100011001111001001111111001
00111101010111011010100100000010
10111110010110011011101000000011
10111110010101000010000001001011
00111100011101000000001000000101
10111110010110111100010010010001
