10111110100011001100100010010101
10111101100000010101110000100101
10111101111011000101100011010110
00111101010111010111101001110100
00111101010000110111011110100101
00111101100011001000110110101111
10111110011101111110010101001000
00111101010000000101011011001111
10111110010111010111110111111000
00111110000010000111001101111000
10111100011111011110101100110010
10111101000111000011101110111100
00111110000000100010011111011111
00111100000001011110011011100100
10111110100110110010101111101000
00111101111010000101100011001011
00111100110111010001100000001010
00111110010001010110001110101100
10111100100101100010010111011110
00111100110110011010001111111010
00111101111101011111101010101111
10111100100000110001010101110000
10111110000101110100100101100100
00111110000000010101100110011100
00111110000100011011101100100111
10111110000000010010110000101000
10111110011110100011101101011010
00111110010100110001001000101010
10111110001001011001111000001001
10111101110001100110110011000011
10111101101111001110011001001001
10111100101110101100000001000101
00111101001101010010001111100100
10111110000100000011010100011100
10111101010011011111000110100010
00111101001010111111010110101001
10111101101010010010111100011001
10111110100010001001110111111111
10111100100111001011100111100100
00111101011111101011001100000110
00111101110101000001001101110100
00111110000011000011011111000100
10111110000000000111111000101110
10111110000010001000001110001100
00111101001010001100010010001000
10111110001010010100001110011011
00111101011110100001000100011111
10111100000001001011001011000111
10111101010101111010100001101101
10111110001111011011101111111011
00111101110000000010010101111110
10111110010000110001100001100010
10111101100101110101100011100011
10111100100100111101011100110010
00111110001111011100001101001110
10111011111001000111101110100110
10111101100010001001100001101100
00111101000100011111000110001001
00111110010011100000000010110010
00111101011011101001000111101000
00111101001110000101011000010110
10111100100000000111010001111110
00111101101101000011001001010010
10111101101010101100000110010011
10111110010010110001011011000000
10111101011010001111010111010111
00111101100000100100000111110110
00111101101100110000101011010100
10111110001001110100000111110111
10111011001110010011110010101001
10111110000011000001110111100000
00111011111100011001001010001100
00111101011110110110011100011011
10111101101111000000101101000011
00111010100110010101110100001100
00111101101000011111110111100011
00111101101100010100000001011001
10111101100011000100010011101110
00111101111000101101000111100101
10111110100111010111001000011110
10111101101101101100011111010111
10111101111000000000011000100101
10111011101011010000111010000010
00111101100101110100001000001101
10111010110101111011001110110011
10111101100010001000111101010100
10111101011101110011000100100001
10111101110000111000001011100010
00111110001100100010111110011110
00111101011111001001101001101101
10111110011111010101000011110001
10111110001011100111101010100110
10111101100011011010110110000110
00111101100110100111000101101111
10111101100011101011010111011010
00111101011010001101110000110000
10111110000000110100100001010000
00111110011001001000010001000110
10111101010110011001010100000101
00111100000100011101110000111101
10111110010001000100010110001110
10111110000011111001100110000010
10111101111101111000011000100110
10111110000110000010000101110011
10111101101010010101100101001100
10111101100110101010011101110001
10111110001100010011110011101001
10111011101001111011101110110110
10111110001000001000111001001000
10111101111111100011010100000001
00111101010001011100100110110011
00111101101000011100101111100011
10111101000010110010110011010111
00111110001000110110110110000011
00111101001101011000101010100111
10111100110111011010101100011111
10111100001111110110011000111001
10111101111100011010010111100111
10111001111101110101111001010010
00111101000100111000010110101001
10111011010101110100111110011111
00111100101000100011110101010101
10111110001000000101011100000100
10111110011000010011000100101100
00111110000000000011000100010000
10111100111110110000111101010010
00111100110000011011111011100000
10111110011110111000000001011001
