00111101101101100001011010101010
10111110000000011101100010010010
10111100001010011000011001100100
10111100010101000110101011011000
10111110010110101000101111111000
00111101010010111010001010001000
10111110010110011111001111111110
00111110001111010010000011101010
00111110000100110110010010100000
10111101111100011100101110001011
10111101100111001001100010111000
10111100111011011011111010111000
10111101111000001000111101001000
10111110001000100100100000110000
10111101001010101100000011101010
00111101111010110101111011111110
00111110000000000111111110111100
00111101010001001100101110111010
10111101101011110000110010111110
10111110001000010000111100101111
10111100100010101010011011100011
10111101111000000100011011010010
00111100100001011001111001110100
00111101110000111011100010011110
10111101111101000001101011101000
10111110000011100000010011000100
00111101001011111001001111011101
00111100100111000011101100110001
00111110000000100100010011111000
10111110010000010001101111000111
00111101100101101010000101101110
10111100100000111001000000010010
00111100110101111001100111000111
00111101011110010011001011100110
10111101100010001000011011100110
10111110000101110111000010011100
00111010110000100011010100011011
10111101111111001011011000101110
10111101110001010011011100010010
10111110001100011001001101001101
00111101100001000000111001000101
10111110001001111010001101010010
10111101110010110010111001000010
10111101100011011111110101100110
00111101101010011011110001011010
10111110000110110011000110110001
00111101011110000001000100110010
10111110001001010101001000011100
10111101000111000111101100001001
00111101001111011100010001000101
10111101111011011011011100100001
10111101101111001111010111010110
10111100111101011011000011111111
00111110000110111100111100111101
10111101101111111010000101000011
00111110001000101100011001010111
10111110001001001001000010010101
00111101011011101010100000101011
10111100011111110100101110011100
00111101110101001001011111001111
00111101000111000010000001100101
10111110010000001010011111011111
10111100101010100001110000110001
10111110001111101110000011111101
10111101111010000010010101000111
00111110001100111110101100011110
10111100011000111010101010111000
00111100100110101010100100101011
10111110000001100100001111010010
10111110001011101110110101000100
00111101011010011110011111111110
10111101110101001101101101100011
10111101101110111010000001101001
10111110011100001110011101011110
10111101011011101101011010011110
00111101110000011010001000100101
10111101101011010111000011010101
10111110000001110100001010000001
10111100001011010011110011001100
10111101001101111101100010110110
00111101100110100100000111001101
10111101100000101011100011111010
10111101100001100110011001000111
10111100000100100000110101111110
10111100101110101011010000001000
00111011100011101001100001100100
10111110001010011111011011101001
10111110001110110011101111011010
10111101011110101110000000000110
00111101110000010101000111010010
00111100110011011001101011011010
10111110011101000010000010010010
10111101101101110011011010110100
00111101011101101110101100100100
10111100110100110100000110100100
00111101100000110101110100011100
00111101011110010101101101000111
00111110010100011110111011011101
00111101001110001011110000000111
10111100101110011010111110100110
00111101101110110010010001000101
10111101100011111101110010110110
10111101010100011001011010001011
10111100100111101011100111111101
10111101110011100011011011010101
10111110000001000011000001101100
10111101011111010110110111000110
10111110010101001011011111011000
10111011110101001111101101011111
10111011111000000001000001011100
00111100110000111011010111101010
10111101010000000000001011011110
10111101010110111011000111001100
00111100110101001001011110011110
10111101110011110100000111011010
00111101110101000110110000110010
10111110000111010000111110111001
00111101111010100101000001010010
00111101001111001000011011100000
00111100100110011001010011010111
10111110011110111111111110000111
00111101011100000110100100010100
00111100101110000111011111111000
10111100111111101101001111101111
00111100111011001111010001111011
10111101100000000111010010110100
10111101100111000111001011001100
10111101111000010000011011100000
