00111101110011111101011010000101
00111101000101101010111000010110
00111101101010000011100000110011
10111110100000000111001010110001
00111101110111010110000101101011
00111110001001001110111001111000
10111110010011110011001001111011
00111110000011011110011101101010
10111011111000010100110000001011
10111101100111010011101111111011
00111101101010110011001011000101
10111011001000001100001101100111
00111101000010000110010010100001
10111101011110101100101011100000
10111101011101011110100110110111
10111110000011001011101010001100
10111101101000000101010011001100
10111110010100111111000010001000
10111110001100000111111011110100
00111100111110000000010101101010
00111101100110101101100110101101
10111101010100011001001101000000
00111100101101110010110000110011
10111101101011100010001111100111
10111110100000100110000010010010
10111101100110101010011111100101
10111101110000011011010000011101
10111101100001001110100011101010
10111110011001000110011101101111
10111110000100010101011000001110
00111100111001001111110000011111
00111110000010000000111110000101
00111101101000110111111001111011
00111011001010100011011111101111
00111100000010111000010010000000
10111110001001010110000110111111
00111110000010110010000010000110
00111011001111111011110001100000
10111110000101110101101000111101
10111110000011111010001111000100
10111110000110010010011100101001
10111101100011011011010010000101
00111101000111001011111111100111
10111011010011001011001010001100
00111101100000110101110001110000
10111110101011110100010111111011
10111110001110010010011101110010
10111101111010001010110010110110
10111100111100011110010000001010
10111100001001111000111010001100
00111100111010111011101100100010
10111110000000100110110111011001
10111100100110110101101001110011
10111101110111001010011110110100
10111011101000010010100000000101
10111101011111000100001110111001
10111110011001100101010111011010
10111110000101011111001111110011
10111110001101010000000000011110
10111101001101100110100000110011
10111101011001010011110011110010
10111101100111110000000011010001
00111011111110011001100100110101
10111110000111010001010100100110
10111110001110011000100110001110
10111100101100110011110111001111
10111101111100101010010010101010
00111101110001010000110001001010
00111011111000111011100010000100
10111110000000011101011011000000
00111101011011011000100111101011
00111101101110011111101010010101
10111110001101110110100101010011
10111110100001101100111101000010
10111110001100011110000011110010
00111101000011100000001011111011
10111101101010011000100001110100
00111110010100100010111101010010
10111101011101110000001000010111
00111101111110001011011011111001
00111100001001111101010011010000
00111101111000110010111010010111
10111110001001101111101010111010
10111100101010101000111100000101
00111101001101100110111001000010
10111101011111001101011101000101
00111101010011000100011001011100
10111101010101110000110100111100
00111011101101100110010000100100
10111110001110011010010011010101
00111101001110000000001111011011
00111101000111010010101100100000
00111100000101111011011010001111
10111101011100001101011000101000
00111100100000110010000110110110
10111101000111110110101010111000
10111101111010011100110101011111
10111110001110110111011100101000
10111110010011011111101101001010
10111100010011010100010011010001
00111101100011011000010001011111
00111101111010011111011111101010
10111101111100101100000000010110
00111101100011011010101011101001
10111110100010111101000101000111
10111110001000011001001100110000
10111101010011110100010000100100
10111101100111101011010001101011
00111100011111100111111111110101
10111011100001001111101100101110
10111110000100010000000101111110
10111110100010000111111011111100
00111011111100111001000011011101
10111110001010011100110110110001
10111110001011101110001110011011
10111110001001000100011011001000
00111110001001010001100110011101
00111101100010110001100101001111
10111110000000110100001001001111
00111101010101010000001110001011
00111101100101101100011011000111
10111101100111001110001010111100
10111100110001100010110010111100
10111110000011101000111100011100
00111110000000110010111001101111
10111110010110100011111110001001
00111101100111010001001111110010
10111101110000000000001010011111
