10111100111110010010000110001111
00111101010110000110011110000111
10111110001011011001101111010000
00111101001001111100101010010010
10111101111100100110010111000111
10111101101001011010101110110010
10111101000100000110011001111001
10111110100000100001111000101100
10111100100011111001100001101110
00111100001111100001111011001011
10111100101101100000011101101101
10111101111100101110101101111110
10111110000110010010011000110111
10111100101110000011101000110010
10111101101001111101110010101010
00111110001010111010001111000010
00111010000011110100111100011101
10111110000101100001000001111001
10111101101101101100111011001100
10111110000110111101010011100010
10111101010100000100010100100101
10111101111100110100010101000111
10111101110001110010010010111010
00111101001110111001010000111101
00111100111000100001010010000100
10111100010001100111111100111001
00111101010011101111011000110001
10111101101001100111111110110111
10111101110011101100000010101011
10111101001011101010110111001010
10111100000000100110000101111011
00111101111111000101110101001010
10111110011110110000100001000001
00111110000010010000101000101000
00111110000011100000000100010000
00111110001011110011001110101100
10111101111010010100000010101011
00111110010000010001100001110011
10111011010101011000000100010100
00111110010010110001000110011011
10111110010011111011100010100001
10111100110100010111010000110101
10111101000000111100011001101111
00111101111100011111111010010110
10111100110110100111100000001010
00111101111110011111100110101000
10111101101001001100111111010010
00111101000111100101010000101101
00111101101100011001110010110100
00111110010110100000011011001101
10111101011001111111111100001100
10111110000001111011100110000111
10111100001001110010010101101011
10111110001110111011001001111111
10111101000001100001111010001010
10111101001001010001111000101110
00111101100001110110000011011111
00111011001001111110011111010101
10111101100011111101111001001010
10111110001101010011111011010000
10111100110001111001011101000000
00111100100001010101101110001110
10111101111010001100010100101110
10111101100110101000101111011100
10111100101000010101110000100101
10111110010100001001010011011100
00111101010001111110010110010111
00111011111111110001000000000000
00111101101000001110100100100101
10111110001100000100010010000111
00111010101000111010011000110000
00111100110101100110100001011001
00111110000111010111011000101101
10111101101101000110101010100100
10111011101011000011100000100010
10111100100000000010000011001110
10111101101011100101101011110010
00111110011001000110001011000010
00111101011101110110101010000101
00111101001111110100010111111110
10111110011000010110011001101011
00111101011011000111111101001111
10111110001100111010011100000001
00111101010001001000011100111101
10111101100110010001000000011100
10111101110011110011010000010011
10111101111100001000110010001101
00111011100111100111011011010000
10111100111010100011011000001101
00111101101110110100000100001101
10111101101011110101110110110101
10111100000000001010101110110000
00111101011100101001101010110010
10111101110110100110001001111010
00111101100011111100100001111010
10111110000111101100000001010000
10111101010101110010111100010111
00111101001001001000101110011010
10111101100100010011100110101001
10111100000011100110111001101101
00111110000010011101001000000111
00111110001011111010011000100000
00111110000110101000110111110011
10111101101011001110100101000111
10111101100101111110110001010101
10111110011101100001101111110011
00111011000011001011001011000101
00111101000110101000110101101101
00111100111110001100000010010011
00111101100001001111111110110100
10111101111100001011101100101000
10111110000101000101110110110100
00111011100010011110101000101101
10111110001100011010110110000011
00111101101001000100110100010110
00111101100010000011000111001010
10111101100100110001000000101111
00111101101000000100110111011110
00111101111101101100001101000111
10111101001000110110100100000000
00111101111000001000010111001111
00111110000011011011100110110100
10111100010110010011110110010010
10111101010101111011100101100111
00111101011001111000110001011100
10111101001111010000100011110001
10111101100010111011111011000100
00111110001011110101011000110110
