00111101001101100001010010110101
10111101011011110001100010010001
10111101100111010110010110011010
10111110001011001010001000110110
10111101000100100100101110100011
10111101111000011101001011110001
00111110000000010111100001001110
10111110010011001100000000100010
00111101000010011010000011101011
00111100010111000101101011100111
00111101101100001001101110110010
00111110000001110010111000011010
00111110000010000111110011001000
10111101110110111101101101101101
00111101001011111001100111011101
00111101001101011000110011101101
00111101101011001000000100101111
00111101110000010111000001011111
00111110000001110111110000111111
00111101001000000111011011000111
10111101110001001010010100111000
00111101100001001001101011101000
00111101101111111011110000101100
10111011000110010011111000101101
00111110000110100110000110010111
00111101101111001101111111011101
10111110001011101110001100001010
10111110010111000000110100000010
10111011111100011101111111010000
00111101001111000101001101011000
10111100010111110111001101011100
10111101101000101000110100000100
10111101010010111010100001101010
00111110010101110110000101000100
00111101100010111100011100100010
00111100110001110111100101011000
00111110000011011000101001100001
00111101110010110010001011100110
00111110000100010110000111000001
00111100011010101011011101100001
00111101110111111001001111010001
00111101110011101100000011101001
10111101101101101011010001101000
10111100011110101100000110010010
10111101011101111000110001010111
10111100111110010101111001010111
10111101101011010100010110001010
10111100011101110111101011000011
10111101111000100110110100000111
00111101100011111111001111110110
00111100111001000001010000111111
10111101110100101010001111010100
00111110010011010111100011011100
00111101111100110000111010101000
10111100000011010100000101011110
10111101111110011101011110010111
00111101101010100000010001111110
10111101111101001000100101010011
00111101101000101111101010111101
10111110000101110011111010011111
10111110000110011010101000010011
00111101001011111001111001010010
10111101101111110110010101110001
10111100010000111101000101010111
10111101110010111100001100000011
10111101110101011111011110111000
10111101100000111111110110100010
00111110000010111111110111011000
00111110100000111000001000010000
10111100100000000011110110111110
00111101010000010101001010110100
00111101000101100110001000010010
00111110000111100101000000001100
10111101101010011000100101000001
10111101001010110101101011011000
10111101110111101101000011010101
00111011101100010000100011010001
00111101110110110000011011111101
10111101100010110000011110111010
00111100001000111000100110110011
10111110010000000100001111111000
10111100100100100100100111100110
10111100110100110101000110101100
10111110000111110011111011100100
10111101001110001100000110101100
10111100110101100100010001111000
10111101111101010110101110101010
10111110010000001000110010100010
10111110010111110011110001110000
00111101101110111110000001010100
10111110010110110100011100100001
10111101100010011010010010110010
10111110010010110110010101111011
10111100101000001001001011010100
10111101110101001111110111100011
00111110001001111100001110011010
00111101101111011101101010001100
00111101110011111000000011010100
00111101000100100111011110101111
00111101101100100110010101100110
00111101100111010001110000000100
10111100011111110000111101010110
00111100111100010110110110100001
10111110001111011100111001010101
10111101110001100010010010000111
10111101000100110101010101000011
10111101111001101001101001100001
10111110000100001101110010010100
00111101110111001110011100111001
10111110001001000100010111001000
00111110000010000000001011110001
10111101000101110111010100001111
10111010100110001000100111000110
00111101100111000000111010101011
10111110000110010000011010010110
00111101111111010110111111100111
00111110001011000000111101011111
10111100011111100000011110110000
10111000001001011101010111001000
10111110000101111111011100000001
10111101101100100111111110010011
00111101011101001111010101010011
10111100101001110011101010000001
00111101110011001100111110001011
10111101000010001101111011001111
10111011101011101000010001011100
00111100111000101010111110111000
10111011010000111101010100101010
