00111101101000100000111101010110
00111101000101101010101110001110
00111110000000100100011111110101
10111110000110000010101011001000
00111101000011000111010001011100
00111101001001001001110101010101
00111101011100000100010111011111
10111110001111010110111010110011
10111110010100010011110001110000
10111101011110000010111001000111
00111101100000010000110100110101
00111100101000000101100011101110
00111100011011111010101101001101
10111101001110100101000001011000
10111101011000111110000111011100
00111101001110101011001000111000
00111110000110110101110000011100
00111101110100010010111111000101
10111101111001100010110001100110
10111101111000101100011110000110
00111101001000101000001111000110
10111101110101000011001110010101
00111101110101101111011001101110
10111101111101101111000110100111
10111110001011110000001110110101
00111100010100001000001000011100
10111101100100011101101011011100
10111110001011101101001101000000
10111101100000001010100011010111
00111101101010101010101010101000
00111101110000110111001110101001
00111100100111100000101000101111
00111101111000000110011000001010
00111110001011010110110001101100
10111110010000000101111010010101
10111101100000101110011011011010
00111101001101000111010010000011
00111101011111111010100011111110
00111101100110110101110111111010
10111110000000001100100101110101
00111110001001010100111111010101
00111110001111101101110010011001
10111110001001001101000010100110
00111110001100101000000110011100
10111101001100100010111001101101
10111100000001011010000001101010
00111101001101100111101101001001
10111100001110010100100101011000
00111110001010001110000011001101
10111101110001100011111001011011
10111101110110001101001110110111
00111110000000110010000111111101
10111101101101100011110101001100
00111011110101100000001011111010
10111101111010000011011010001000
00111101011101101010010111110100
10111101101100111011011111110001
00111101100011011000110110010111
00111101110100001001110011001111
10111100110110111000110010010011
10111110000001010111010100000001
10111101011001001100011001011000
00111100101000010000010001010100
00111110001011100111100111101010
10111101011100111011000001011111
10111100101010001111101011010110
00111101101110010110101101000000
10111100111010101100011000000100
10111110000111110000001010101011
10111101111110001011101010100101
00111101010100101111000010110011
10111101101101001001100011000001
10111101100011011100110010110000
10111110001101011001100010111101
00111110001010100011000100111011
00111110000010111011110101100110
00111110000111001111100001001100
00111101001111100001010011101011
00111110010011000100101010110101
10111110010000011000011000101010
00111011111010101111001101100101
10111100111001100101011000001010
10111110001000000110110011011100
00111100100010111100100000101100
10111101100010010000000111010101
00111110000110010111110000000001
00111101010010100010011010100110
00111110001001110111111001110010
10111110000011101111000011000111
00111100011111010010001001000011
00111100001010011011011101110101
10111101000011101001010001110110
10111110001110101010001001011110
10111101001101010011001110001101
10111101110011001001110010100010
10111110011101000001001000001101
10111110000010100000011111011101
00111100111001011000111100111011
00111101100001010111000001101000
00111101000011010010011010000011
10111101101111011111010111000000
00111100100101000101101110010010
10111101100000010001000010101000
10111101000101111011000011101110
10111101010100000010011110010100
10111100010111111010110110110001
00111110000000111010100010000010
00111100110011100010011001001000
10111110010100101110000100100000
00111100001000010000001101000110
10111101011111000110110110001100
10111101110000000001001100001111
00111100110011011110010011100100
10111101010101111101111000110001
10111101100100011111001111100110
10111110001001111111110110001110
10111101101101010110011101000001
00111101101000010001101110111011
10111101111000010011000010001100
10111101111111110100000001001100
00111101000101010000110010000011
00111101001010000010001001100110
10111101000111000010100010100001
10111101101011110110101010010100
10111101100000101001100110110101
10111101111011110011001111001010
10111101111111010101011110101100
00111100111001110111111000110001
