10111101010111101011010101000001
10111110010010100010010111010111
00111110001101000001010110110101
00111101100001110001011011000010
10111110001100000110100001010101
10111101110010000010101100110010
10111100010001000011110110111011
00111100100000100011010111110001
00111101100011011110001001100011
10111110001001001100011100110100
10111011010001010110100001110110
10111101011001100111110110110011
10111110000010111111011000001100
10111110001010011110101001101101
00111101001101101110111011111100
10111101000100011111000011100000
10111101000100011000001110001100
10111101111110100001010100001100
00111100101100111011100110111111
10111101111010111010010101111000
10111101100001000000010011110110
00111101000000010101111111111000
10111101101000010010101011111010
00111101000110001100001000011010
00111101000101000110101000100110
10111101101100101101001111111111
10111101001000000000001011001100
00111101101010100010011100011110
00111101011111010111011110111000
10111110011001101011100001010101
10111110000001101111010010111010
10111110000111110011000000000111
00111101000011010101000110001001
10111110000110010010000000001010
10111101011111110110010100100011
00111110000011011101000111111001
10111101100000111011000110111101
10111101001101110101101011001011
00111101100001011001110001111111
10111110010100100011110100101010
10111101100100011010110001001001
00111110000011011011101000000100
00111110001100000110010100111001
10111101011010110110110110000101
10111100011100010111101101111101
10111100110010110011111010000001
00111101011110000010000010101001
00111110000101110111010110101111
10111110010110101001101110001111
00111110000001100011000011111101
10111101100001110111000101010010
10111100010110011100100100000011
00111101111101010101010001110110
10111101000011010010000011110110
00111110001100010101100010110100
00111101010110111000101000001010
00111100101101100101011000000001
00111110000100001011111111111001
10111001101110111001101111000010
10111101010101001010011110011011
10111101100101110100100101011101
10111101101001110100000111011111
10111101111000010111111010011101
00111101011100001011110101001101
10111110000100001110111000011011
10111110000111111000000010100111
10111101100010100110010110010000
00111101000001100110111101000011
10111101110000001111100011000101
00111110001100111111100100001111
00111101110110010010000010111010
10111110001001001110111010110011
10111011110000110110101110001001
00111101010011000111010011110100
00111100110001111011110011101111
10111101101000011110010110111111
10111101011101100000011100100010
10111100001011110011111011100101
00111110000000011100010100001010
10111110011000000010011110111001
10111101010010110110111101101100
00111101110000101111101101000110
10111101100111110000110011111011
10111110001000000101100001010000
00111101010011001010101010001110
00111101100110101001011001100000
10111101100011000011001001001100
00111101000001111011000000100101
00111101101011011001010111000111
10111110010001011110000110101010
00111110001001010000100001100110
00111010000101000111100000000010
00111101010000010011100001100010
00111110010111110101110001010001
10111100100101001100011001100101
10111110000010011110011100111100
10111101010111111101011100011110
10111110001101110001100101110001
00111011100011100010010101000011
10111101111001101100010111011110
10111110000011100101010001000101
10111101111110110110110001111110
00111110010110010011110111010000
10111100011101110001111000101101
00111100100111000110010001001001
10111110001101101010010000110100
00111110000000100001110001001110
00111101110001110011110000110110
10111101110111001111001010000110
10111110001001101101110001100000
00111101001100011011000000011010
10111101110010100000001100011100
10111110001101010101100011111001
00111101010101110110111001110000
10111101100100111011111100100101
10111101001001101100011111001110
10111101101110101110010000100100
10111101100111101010110000000111
00111101100111100001101001011010
10111110000101010101100111100100
10111110000000011000001111100001
00111101101001111111110101111110
10111110001001101001001111000011
10111101011101010010000001101000
10111110001010011101100000010100
00111101001010110101010101111100
00111101100100011111010110010110
00111110000100011001001100110010
