00111101101010111001100110100011
00111101100010100101001000000100
00111101101011011010101001000100
10111110001010100010111000000101
00111101011011111000110010001010
00111101111010100100111100110101
10111100100011111001101011010101
10111100011101111110111001011001
00111101011100110010001110100110
00111100111011011110111010000010
00111101000101000111111010111101
10111100111001101011010101010110
10111101100011010110010101100011
10111100111010001001100000100011
00111101110011000111100010010101
10111100110110001101011011011101
10111110010001011000001101010100
00111101111111010010100110001011
10111110001000000111000111110001
00111100110111010001011010100001
00111101111100001101111100000111
10111101110111101110111000101000
00111101100010001101100010011111
10111110001000001110111100110110
10111110000001101101010010011110
10111110001001111101001011001010
10111011010000101000001101001101
10111110000100001100111001111010
10111101101010111011110010101000
00111010110110101010101101000000
10111110000110110000001101100000
00111101110000011000110100001001
10111101110100010110110001000101
00111101111010000010101110000000
00111011100011000101001010101101
10111101110110100011100111101010
00111101100000110001100010100110
00111110000101010000011000011001
10111101110000101111110101110111
00111010000000110000011110110010
00111100100111101011010011111100
10111101110011110100100100111101
00111110000100010001100100110100
00111101011111000010001000011101
10111011000000101011010010111110
00111101010011101010111000000110
10111110000000100110011011101101
00111101111100011101101100001100
10111101111001011100001001001001
00111101010100010111101101001001
00111110010111001000111110111110
10111001100110111000101100011001
00111101100100110100001100000010
00111110001000110001111010101011
00111101100000110000010110001010
00111110000001011011111110110001
10111101111100000010001000001001
10111100100001111000100011110000
10111101010100111001100011011000
00111110010000001001110010101000
00111110011010111100111100001001
10111101000101111010111000001111
00111101111000010011111000000100
00111101001000001101101001100101
10111110000101001011101100001001
00111110000100001011010111100010
00111101011001110110011000111110
10111101011100010100001011000000
00111110001010000110101101010100
10111101110000110001110111100011
00111101100111000011111001010100
10111101100001000100010001101101
10111110000100111101110000011001
10111101101001110000110111111010
00111101001100100101010011110100
10111101100111110010001100100101
00111101101010101001001000000100
00111101010000011110110101110001
00111101101011011111000110111100
00111101101101101111000011011011
10111101001111000111110001010110
10111100100111100011011111010110
00111100100011010011111111100011
00111101111110011110000011110001
10111011101101101111010010101000
00111101100000010001010011000101
10111101010110100100011011101110
00111101000110100000011001101111
00111101001000100100011010100010
00111101110010011011111010100101
10111101100000101000000101101010
10111110010011110000101000100010
00111101101011110110110011001001
10111101111011000111111011011011
10111101101010101011111011010001
10111110000010011111001111010101
10111101010100101010111001000000
10111101111010111110001010100011
00111110000010000110110001010100
10111110001000100011110011010101
10111101001010110010100011001001
00111110010100100101110110110010
10111110001010101011100000001001
10111101011010111101100001010001
10111101011111001011111000010111
10111110000000010101000001001000
00111101111011101011001011110100
10111100101000001110101111110110
10111110000100011101101011011010
10111110000011100100011001010110
10111101000000010101001110011011
00111100110110010000001000011011
10111110000100101110010011101011
10111100111111111111001111011000
10111101000011010100000110101001
10111011101111111100110000100111
10111101101111101110010100110011
10111100111011001100110010010001
10111110000110011001110001111010
00111101000010101001010010011010
10111101111111101110011010000110
00111100100111111110101110010110
00111110000000101001001010101100
00111100110101101100100101110011
00111101110111101110101000101011
00111101100100011111111011100001
00111100111001101000101111001110
00111101100110001001110010000100
