00111110000001101010110001011100
00111101101100000100011010101011
10111101110000010100001010000101
00111100100010101111000101010100
10111101101111100000010000000110
00111100110011000101101101111101
10111011101110010000000000101000
10111110101000111101101000100010
00111101010101000010100000010101
10111101111100111111001010110110
00111100001101100000101011101000
00111100110011110011011110101100
10111101000100100011010110011100
10111110001101000110110011100000
10111110000111100000001011101001
00111101100000101100101010100100
10111101001101000111100111101110
10111101001000001110010000010110
10111101011000110000000001010101
10111110000111100101111000101010
10111110000110000010001111011101
00111101001100001011010110001011
10111101000110011010101010000111
00111101000011001101010110011000
00111110000001110000011111011111
10111101011011111111100010010000
00111110000010010011101010100001
10111101111100001100011110100010
00111110001111110010101010010110
00111101101011110111111110111010
00111110010000000100111111101000
10111100110100000100001001001010
10111110001010010101111101110100
00111101110010111011111111011111
00111100110011101000001001011000
00111101101110101111000111000110
10111101100011000101000010001011
00111101100110101011011110001110
00111101001010110000010110011010
10111011000101111010100101011110
10111101011101000100001100100001
10111110000010111100000101011000
00111110010111101010010111101100
10111110001011011000111100010100
00111101111011111110010110011010
10111110000101100011000001010011
10111110011001011100101001011011
00111110010110110011101001101100
10111110001100111010110100110100
10111110001101001011110101110110
00111011101000111111110010011101
10111101110011001111000010100110
00111101000010000100110011000010
10111110001100011111010111011101
10111101011000010110000001000110
10111110000010011010011101001100
00111101101100010000101010001100
10111100110101000011101110001010
00111100100010000010000001111100
10111101101001011101101110111011
10111101001011000000001001101101
10111101010011110101101000100111
10111110000110101101000010001101
00111100100110000000110001111110
10111101110011001101111010100010
10111101010110110010010111111111
00111110000101100010111001001011
10111101001111110001100001101110
10111100110011111110001011000100
10111101010111101011100010111001
00111101001100011011010111101100
00111101110101010100110100001110
00111101101101100101110100101000
10111110001010110111011100101110
10111101110100100000001111010100
10111101110000001111010011111110
00111100101011101010110110111111
00111101110011111101110000011110
00111100001000110001111110011010
00111101100111001101111101110001
10111101011011100001010111110101
10111100000001000010010011010010
10111101111111100011110000000001
00111110000010000100011010001100
10111100000110101110101001011011
10111101110001011010110101011011
00111100111011111010010011101101
10111110000101111110001000110110
00111101001000111001000111111001
10111110000101000110011000110110
00111100101111111011000100001001
00111100010100011101101110010101
00111101011111101010100100011011
10111101011101011110100100101111
10111100101100101001001111110101
10111110001111101110111100111010
10111101001001010101100110001000
10111101100011000001000110000000
00111101010011010111010001011000
10111101101010010001000000110111
10111101111101000110101101100110
10111110001011111100011101000101
00111101111001001101010000100011
00111101000110001011011111000010
00111110010000101100110000011111
00111100100000011001110101010100
00111101010110011001011011100100
10111101110000010111100101000110
10111101110001010011110111101011
00111110001100010000110001100110
00111100101101010111100010011010
00111101101001000100010100110110
00111101100011110001101011101111
10111100001111100111001100111101
00111101110100000111011101100111
00111101010010111100111101111110
10111101100110000100010110011011
10111101110010001101111010000111
10111101011001111010000000001110
10111110000100011110000001101010
10111100100100000000100111000000
10111110000101000101111101001001
10111011011100110101110011011011
10111100011111100100101011001010
10111110100001110110100000000100
10111110011100111011111110011010
10111101011000110110100101100010
10111110100011001001100100110001
