00111101001110011100011000001110
10111110010010110111100011100110
00111011001111001111111101001100
10111101000100110010011000011000
10111110001010110000010111110101
10111110010110011010110101101000
00111100110011101011110010110111
00111100010010001010100010110101
00111011010110011010011110001010
00111110000110100110100111100101
10111101110000010111000100010000
00111100111100001111000110001000
00111101100110011010110011100111
10111110001110110011000111010001
00111101100000101001111111011101
00111101001000000100110001010100
00111101111110101011110011001110
10111110011100101110001000101110
00111101101011001000001000111110
10111110001001101001010110001010
00111101010100111101001001000011
10111101000011100100101001011100
10111101111010100111001010000010
10111101111111001011101000101100
10111101110100001110111011110001
10111110010110101010101100111000
10111011010101000111111100000111
10111100011111001001101000111100
10111101011011011101100110011101
00111100110100100110001001111111
10111101100011010010001111100000
10111011010000110110000101001110
00111101000010110011011001000100
10111110010011000011000011100100
10111101110001011000010001000101
10111101000100011000101101011110
00111101010001110101100111010010
10111110000011001101000110010101
10111101110011010110010010100110
10111100111011011101111110000110
10111101111100010101100100100001
10111101011110100001110110110100
00111101010010100001110101001011
10111101101111110000010001000111
10111101011010010111100001000011
10111101111100001101001001011110
10111110000000101110001111100100
10111101000110100000111100110010
10111011001101001011001000011011
10111010100001111111010101111001
00111101101100111111001101011011
10111101011111001001100111110110
10111110100001010010100010111110
00111100101000110010010110001111
10111110000001010001110010011001
00111100011010010110111011000000
10111110001101110001111001001110
00111101111111110001000111010010
10111101110010001011100011001010
10111101101110110111101101110111
10111101101000011101010101101010
00111100101001100101101010101101
00111101100110011001110101011001
00111101101001010010000001110101
10111101100001100010010111101110
10111100101000100001110100001111
00111101110001100110001001101110
10111100111011001111101110101011
10111100100111110111100101000011
10111100100010101011101100100011
10111101100011110111110100000011
10111101010010100101001100111000
10111110101111110101111000101011
00111101000100011110011010011001
10111100001011100001010010010101
10111100111100111101100010001001
10111110000010001000101000010000
10111101000000010111100011100010
00111101111001011110111010100010
10111101110000101111110000110000
10111110001100010111010001000100
10111110010011101011001010100001
00111110000101110101101001100000
10111100110001001011011001001110
00111101111011000011111000101110
00111101111101100111000111010111
00111100110100110110011100000110
10111011100101101011101001110110
10111101100000111000011101100010
10111110011101011011111011000101
10111100100000000100010000010001
00111110000001110001010000000101
00111100100100001110111111111111
00111101100000010011001111001010
10111110010011100000100111110100
10111100111101100001100110100100
10111101100111001011000001000100
00111101011111100000011100000010
10111101011000110110010010101010
10111011001110001101101011010000
00111100001111011001011110011011
10111110000000010101111101111010
00111100001101010000101100110000
10111110011001011000111111111100
10111101001011001101110101011001
10111110001000010111010111100011
10111101001111001100111001000010
10111101111110001000100010011110
10111110000010011010000001100001
10111101101100010110110110011100
10111110010010000111110000000010
00111100001000011100101000001000
10111110001001100001001100111010
10111101010011110101111011101011
00111100100000100010011010010101
00111110001010011001011110111011
10111110000101100010010000001101
00111101011011010000011011010101
10111011101101111101100010100001
10111110011000011011010110110010
10111100100000110111001101001100
10111011000000000110110010011011
10111101100001111011101011101101
10111100100000010001100110011011
10111110000011101110011111001100
00111110000111110100101101001010
00111101111110100010101111011101
10111101010110110011101000000100
