00111101000110101110011101101010
10111100100010011100101100100101
00111110001100010001011000110100
10111101110010011001100100111101
10111110011010000010110001001110
10111101100000111100011111110101
10111101011110111011101010110111
10111101001101110110110101000010
00111101110111010111100010110110
10111110011001101000111110111001
00111101100101000000010010000010
10111110011100111110111010011111
10111101100100111011010110101101
00111100110100001110111110100011
10111101011011100000101110111101
00111101110110011101010010110101
00111101111001000010011110111100
10111101110000101101110000101001
10111101100110010010110000001101
00111100110011100100001110011000
10111110010110100001110101111110
00111101011100001110111111010011
10111101000110010111100000011011
10111110001010110101111101000110
00111100110110010001011000011100
00111100110000001011100010100101
10111110000010011001100000110100
00111101101010011101101011110111
00111101010101111010100101100000
00111100110110100100001110001010
00111101010010110010100100010110
10111110000111011111111001100111
10111110011011001100000101011001
10111101101011110100001110111111
10111101100010001100001010101001
10111100110100001011111111011100
00111101101011011010100101100011
10111100011000111111010000110000
00111110000110001010001011100110
10111110001010001000100001000100
10111101101110001111000111100010
10111100110101000101110111010100
00111101001100011001101011100111
10111100010001011110000101111110
00111101100101001011010100010110
10111101001001001101000001000110
00111101110100101101111111010011
00111110001010010000011110110111
10111110001101101101101001010000
00111101101100101111000011001001
10111100110111100010001000100111
10111100011000110001110000011110
10111100100100000111100001000101
10111110000101100010010001010010
10111110000011101110001011001111
00111101001111111100011111010011
00111101111000110111001000011010
00111100001011011001011000111100
10111101011100000101111101100000
00111100001111000001101011101100
00111100101011100100101101101111
10111101000011011000100100101011
00111101100011000011010111111110
00111101100011110111110111100101
10111101100001111100100001000101
10111101111011011101101000001101
00111100110001100101001111101111
00111110000100100000111011010101
00111100101100010011111100001001
00111110000110101010100101011000
00111110001010100111000100010110
10111101100101011010111100100100
10111110011111001010001111100101
10111110001101100001000010010010
00111110000010000011100100101110
00111100011011001100000000110111
00111101100010010001111100110110
00111110001101110110100010000000
10111110000110110111011100111000
10111101111110000001110010000001
10111110010010001101000100110100
00111101110000000110010011010101
10111011110000010000010011000100
10111110101001111110011001111011
00111101110011111111000111100000
10111101000101011110101010100010
00111011101010011011000001011110
10111101100100011000111001100100
10111101010100111111011101110100
10111100101011001100101100100010
10111100100111011101100100101101
00111101101011100101010010010010
00111101100111010000011011011000
00111101100001000000000000111110
10111101101011111111111011001010
10111100111100010100000000110000
10111110001110111000110011101011
00111110000010101011101101100110
10111110000111000110000110101111
10111101101001001010011101100111
10111101101100010000011100010101
00111101000100110100100000000110
00111110001011100100110100110010
00111101110001010100110011010110
00111101001100110110010101011110
00111101100111001111001010011001
00111101000001011000011010100111
00111110000101000011001101011010
10111100100101011010001101101000
10111101101000110110100111110000
10111101000101001010110001110000
00111100011110100000011001110101
10111100000000010101011101001101
10111110011110100110111100010110
10111110000011101010000000000111
10111101101011010101001001000000
10111110000010001101101010101101
00111100100110011000011011010100
00111101010100111011111111111011
10111101101001101000101101010001
10111101010001001001101100100000
10111101101111111000110011101101
10111011101101100100110010100011
00111110001010010001000011111111
10111101110100111110111100111101
00111101001101011001010111110100
10111101110101100111000001001110
00111101000110111100000111100101
