00111101111000111101011100111111
10111101010110001111111010110000
10111100111101100111110101111110
00111100111100100001000000011111
10111110001110110001000000001010
10111101101100000010000010000010
10111101100100000101100000110001
00111101101000001001000110111010
00111011110111100100110011111000
10111101110110101001010110101111
10111110011100101001011011110111
10111101101010100111100001010100
00111101011101111011001000111100
00111101000010100110011001110101
10111110000000010101101101001000
00111110100010000111011000010010
10111100001011011110111010100001
00111101110100010001010000000000
00111101100111011001011000101011
10111101101000101110010110000101
00111110010101000000010000000010
10111110000000111110000001001100
10111100101101100111111011011010
10111101100101011110101010010110
00111101100000110110100101011100
10111101111110110001000001001001
00111101100101101101100001001000
00111101111001101110101100001100
10111110001100001110011111100111
10111110000010101000000011101011
10111110000010111001101010110100
10111101000100010110010010000111
10111101100000110001110000111110
00111101101110110000110110000000
00111101000010110111101001110001
00111101110000011010101000011110
00111110001010011111101101110010
00111101000111001010100000000101
10111110000011001010001101001001
10111110001111001011001011010110
10111101011100110001000110011101
00111101100111101110110100011110
10111101101011000111010000111010
00111101100110000010101001100010
10111110011110101101000100111111
10111100100001001110011111011010
10111110001000011001001010010000
10111101100011001101001110001000
10111100000010011110110000100001
10111100011111010010101110100011
10111100100011001010010111100001
10111100010110000001010101010001
00111101100010101011010001100010
00111110010110001001111010101010
10111110000111101000011000110101
00111101100100001001011011110100
10111110010001000001010010111010
00111101111111001011110110100100
10111100000101100000111001010000
00111101101100001111000000101010
10111101110001010010011110111001
00111100111010010011101011010110
00111101011010000110111111111110
10111101011110101001100100001111
10111101110000100111100000101100
10111101011100111101100011010010
00111100101001101101100011100010
00111101011101010011010111000101
10111100101000010010100100011000
10111101000000100111011111110001
10111110000010100001110001101101
00111100100110011001011100110101
10111101100100010000101001110101
10111110001110100111011000010010
10111101100101110111011111100010
10111110000100010100011110000111
00111110000001111001101100101000
10111101011100010111101110001110
10111110011111111011001110001100
10111110001101000111011011110111
10111101010000100010011001000010
10111100101011111110010011010101
00111100101110000110000101101011
10111101110000101100000000000001
10111110010100100101011111101000
00111101010111001110111011011001
00111101010001011010011011111110
00111101101100000101100011011010
10111110011011111000100010111101
10111101101100100100101001010001
00111101100001000110011011111100
10111101100110111111101100011010
10111101000101010111011111101111
10111101010010010001010110110000
10111101100110101111000100101011
10111110010011100011001111011111
10111011100001011010101101100010
00111100110110000111100100110001
00111110001101000100100110111100
00111101011100010101011100100101
10111101101000001010010101110011
10111100110100010100010101101001
10111101010010100011000011011001
10111110000100101001000100010110
00111101110111101011100101001011
00111101100100101010101001010110
10111110000101111110101100101010
10111101100000111110110110000000
10111110000110010101011011101010
10111110011110010001110110100100
00111100010100010011010001001110
10111100101100011100110000100010
10111101010010100111100100011010
10111101111011101101111010111001
10111100101100110110001011110111
00111101100000101111100100111010
10111100110011111101110010010101
00111110001000001000101110110100
10111101111111111110001101010100
00111100110101100110000010010110
10111110000011010100000101000101
00111100000011001111010001101000
00111101101100010000000101110010
00111101011100011001111110111010
10111101100001101010011011001000
10111101010100011101111000101110
00111101110000001010011010111111
10111100110101110110101110111011
