00111101110010001001011100011011
00111101001101000101110100111101
00111101001101000111100000110011
10111110010110001110111110111101
10111101010100111100111000101001
10111100111010010001110010010111
00111101011110101110000000011011
00111110000011111100001101111010
00111100110010111100100101110001
10111101101000001101010100010110
10111100110111011110110010100100
10111100000000100001001000111111
10111101011011001110111101001000
10111101101011101111101000100001
10111010001110000111100010000111
10111101111101001010011101001000
00111101110010111101010010111110
00111101000000111001010110001100
00111011101110010001011101001100
00111110000011001011110000100101
10111110000101111100100100101100
00111101100000110000001110001010
10111101001111000000010111110001
00111101010011001100101000110011
10111101100100000111111001010110
00111101110111101100000110100011
10111101010110001101100011000111
00111110001101010101110110001001
10111101100100100101011111000100
10111110010101000011011101001100
00111100111000101010110000111101
00111110001011111000000000110001
10111101111110000001111111101101
10111101010100110000010001111010
00111101101111111101000010101111
00111101101101010100000011000101
10111101100011111000000110110000
00111101111111100101101100000110
10111101101001001010011110001101
10111101111001000001110000110110
00111010101001011111010000010110
10111101000000110110000100111110
00111101100011111110011110011011
00111110001101110000000000101101
10111110101000100100011011001010
00111101100100110101000111100110
00111110001100011101010111110011
10111101010000011001101110101100
10111110000011011100000100001101
10111110011011100010110100001011
10111101010100011110110010111001
00111101111001101011000100000011
10111110001100110100101111000010
00111110000010010001001000001110
10111100100000000011001101111111
00111100001100001011001101111000
10111101100100001011010011111011
10111101011000111000111100101100
10111101111101101101000010010101
00111101111010101111101000010110
10111101100111110101111100100000
00111101111110110101110011000010
10111101100101101000101010010000
00111110001010100011100111111010
00111100100000110001101011101101
10111101100010000010010111000110
00111101010001001110110001000000
00111101001111101101000100110110
10111101001010101010001110110001
00111110010010010100101010110000
00111101010010000100111000110110
00111101010101100110110110011111
00111011110110110001100010110010
00111101101000010100101001011101
10111110011110010000110101100000
10111101101000010010011111010001
10111101111110110111011111000011
10111110001010110100011001111000
10111110010000100110000011111000
10111011101101110110101011110011
00111011011001101110100011011101
10111110011000110010010111100110
00111110000101001010111011101010
10111110010111110110011111000010
00111011110111101010100111101100
10111101111110110110001000110101
10111101111000001100001101101110
10111110000111011110001010010011
00111100101111000111000000001010
10111101011110001010101110111101
00111101100101100011011101100000
10111110000110100111100010110011
10111101010101001111100111001000
00111101001111001001110110110001
10111101101110110110001011011101
00111110001101010101101011101111
00111101000101001100011011110001
10111101100111110001011001110011
10111110001011100110001000000001
00111100001100010100001101110000
10111101110110100010001110101011
10111101101011111111101010000110
10111101000010011100001011001011
00111110000110000111000000101010
00111101011011001011111111000111
10111101100011101001111011100010
00111101011110001011011110001100
10111110011001101111001010000111
00111101111100000001011110101101
10111101100010000011011101110011
00111101111110110000000001101100
10111110010000100000000111100110
10111110011010101011110000000111
00111100000100000000001001000100
10111100110100001111101000000111
00111101000001111100101000111111
10111110001111000010001110001111
10111110011001010100011110010010
00111110001000101010000001010011
00111101010111000001111000100111
10111110001000000010110011101001
00111100001000111000101111001111
10111110001101101010110100110010
00111101101100010111011011001000
10111110001010011011010001001001
00111100101110100101010101010001
00111101101010000101111011110000
00111101000101000000111100100110
