00111101111001000010100010001111
10111101110011000000001101000010
00111100001001011111111101011000
10111110000100101011010011011001
10111100100100010111100001010100
00111100010011001011111110101001
00111101100101111001010110010000
00111110000010010001000101001110
00111101011001110100011111000011
10111101100010010000001110100100
00111100101000100011111110000001
10111100100000000010111101011000
00111100010010100001000010111101
10111101001110001101001110001111
00111010011010011110010011100110
10111110000000100101001000101001
00111101111101000010110000100111
10111101111000001001110100110100
00111110000011010010110101101000
00111011011100000011010011100110
10111101101100100001011100100111
10111101111010001010110111001001
00111101011000011101111101101101
10111011111101000111111010010101
00111110010111000111001011101000
00111101101010100001100011111110
10111101000110110111101100000100
10111100001011111001001110110110
10111101010001111000111001010110
10111110001011101000011011011101
10111100011001100011001001010010
10111101111010101000110011011101
10111101001100101010100101100111
00111100010101111001111101101010
00111110001010011010111101101011
10111110011001100100010100111101
00111101000010011000100100010101
10111100010101001010100001101010
10111101100101111001001111110101
00111101101010110101100101100010
00111101001111010110111001111110
00111101000000100011000100101001
10111101100100100010010001110001
10111101111101000111000001001110
00111110001011100100100110110110
10111100010110010011110011011110
10111100101001011010000110001000
00111100100100110101101001101010
00111110001110011010110110110101
10111101101001001100000011101111
00111101101101100100000101001010
00111101011010000100110000100001
00111110010110001111100111001101
10111101110110000001000010010000
00111101101110001001111100100101
00111100101011110101101000000111
00111110000100110001000111000100
10111101011111001101110100011010
10111110000010111111000100100110
10111100000101101011000111001111
10111101011010001101000110001010
10111011010110010010000111101101
10111101101010100011000110010000
10111101010111001110000110111000
10111001100001110011100010001011
10111101111000101101001000111111
10111101100101111011110010110101
00111101001110010010111110000111
10111011100110111000011000101000
00111101100100010001001001111011
10111110001101010111101010010111
00111101100110010010010101011101
10111101100011000100100010000010
10111101111100111101011111111100
00111101011101010101001101111110
10111101111001101100010000111110
10111101010111000001110101111101
00111101110011100010011001010110
10111101010001111110100100001101
10111100010110010101111110111000
10111101111101101111000001000110
00111101001001100110100000101100
10111110011000101101010010100100
10111110000001100010100110100111
00111101110100000101100111001001
00111110000110111100011000101011
00111100100000111100110110000011
10111110010000100000110101011111
00111110000101110101110110010010
00111101110011110000011100011110
00111100111011101001010001000011
10111110000110111110101010010011
10111100000101101011100101011000
00111100100110010010100011011100
10111100111011010000011100000101
10111110001100010111010100011001
10111100111011111111010100111001
00111101100011001110111100110101
10111101100010101000011110100010
00111101110100100100000000000100
00111101110000110100010110010000
10111100000101000001101001001101
00111110000010111010101111011111
00111101101010100111101011101100
10111101110000001110001111000101
00111100001110111001011100111011
10111110000001110011001101000000
00111101000011010100111001111001
10111110011110010000110000000110
10111001111000110010000001010000
10111110000110001100001101110111
10111110001000000001100001110101
10111110001011111011010111001111
00111101010100101101001101101110
10111101100110111110100110011011
10111110011110011010101100101010
00111110000101111000011011111100
00111101101001110010101110110100
00111110000000100001000111101001
10111110000010101110100010010001
10111101011001000111101111010100
10111110000010011000010110100110
00111100110011010001100101111001
00111101000000001101000111000000
10111101111110110010010000101000
10111101101001001001000101100101
00111101011010111011001001001100
00111110011001111110101001111101
