10111110010111100110111010101111
00111101000110011010100011110111
00111101000111011101101001011011
10111101101101111100101010000000
10111110000001001111010110000101
10111100100010001111001101100000
10111101100001100100010111001111
10111110101001010001100000111110
00111101110101010001111010000101
00111101111100000001000001101010
10111100101010110001001011000110
10111101110100010000001000101010
00111100111000101111000001011000
10111101011111110000001110011111
10111101111001010011111010100101
10111100110111100010010001100000
10111100111110110000100000110111
10111100100101100111101000100101
00111011100010011111000111111111
00111101000110100010111001010100
10111101111001100110110000111011
00111110000000011110101001010010
00111101011010100001110010100100
00111001111001001000011100011110
00111100101111001100011011011010
10111011001100000001101000011111
10111100100101010101111110010100
00111110010011100001111011100010
10111110001010110100000011101001
10111101001100110010011011110001
10111110100011101101101100011110
10111110001100001011011001011100
10111110010110001111100011111110
00111101111100000010100010000010
10111110100001011111111110000010
10111110000011001101110001001101
00111110000100010011000101111111
10111110000011101111001101010011
10111101000001110110101011001100
10111101101011100111100101011111
00111101100100111111100001011111
10111110001011000000011110110101
10111101011000010011010011011000
00111110001010001100100001011111
00111110001100010000010101110111
10111101110010101100101011010001
10111110000101011111100111011010
10111101100010001001010101001111
10111100110010111111110011110101
10111101001101110011110100100000
10111010110100011011111110001001
10111101101101100001101000100110
00111110011110111111101001110001
00111101011101001000000000000110
10111101000011010001011110001011
00111110001100101001101010110000
10111011010010111100011101100000
10111101111101111111110011011001
00111100000111110010100010111000
10111110001000010001100010001101
00111101101001001100001010011100
10111101010001101111111111101001
10111110011001110011101101010001
10111101010011101111111010110000
10111101001010101101111110100111
10111110000111100001000000011001
00111110010011101010001111011100
00111101110000001100100100111011
00111101011010101011001010101010
10111101111111011001001101010111
10111101101011011001100000110111
00111100100001010011101101100000
10111101011000011101101011011011
00111101000100000001100111111100
00111110000011011000000110000100
00111101100111101010000000111101
10111100111100000001110100100110
00111101111110010001011110001110
10111101100000100100000111000000
00111101100000101011000000011011
00111110000100000101010111000100
10111110010111011101010100011010
00111101000011000110000110010001
10111110001000111101100101111010
10111101001100010011010101111010
10111101100111011000111001001001
10111011101101010100100001111000
00111101100100010100100000000010
10111101100100110001001011011110
00111101001111001010100011000100
10111101000111010100011001000100
10111101000110101100001011000111
00111101010111011010001101011100
10111101000100000011001000000011
10111101001000011100110011000010
00111101100000000110110000010000
10111101000111111001001001000111
00111101000101001001001000101100
10111110001100011101111011011100
00111101101000011000000101001101
10111101000100101000101111011110
10111101100100001010111100001101
00111101100001101100011111000110
10111100101000110000100100000111
10111110001000010000010011100000
10111100001010001010011010010010
10111100011010010000110111101111
00111101111100110000011101001100
10111110010100110101111011101011
00111101110011100000011101001101
10111101010100100101111101110000
10111101000010001000111111000100
00111101011100001101010111010111
10111101100010001011000101000000
00111110000000001011011111011000
00111011101101010011110110110100
10111101101101011101111010100010
10111110100011010000100000101100
10111101111001010111011111100100
10111101010011110001001001110000
10111110010111101000101010010001
00111101100010000000100010011001
10111101000101001011101010011101
00111100010000001000110100010101
10111110000001011111100100001011
10111101111000110011100010001011
10111101101100111000111101011000
00111110001101001011100000001101
