10111101101000010111011100100011
00111011110110111001111001000101
10111101001110111011011001101100
00111101110011100111100000001000
00111101100110101001100111101001
10111101100101010011000111010000
00111101111101111110010111011000
00111011100001110110111100000101
10111101110111001101011010011011
10111110001110101010011010101010
10111101010110000011000000110001
00111101111001011000110100011001
00111110001011110100110110010111
10111101101011100110000001111100
00111101001111011001111010010101
10111101000010010100100001010000
10111110000000110010111100101110
00111100110000010111010001111010
10111101111001011101100011100110
00111110000111101100111001100001
00111110000010011110000101100001
00111011100101011000000010101011
10111100101111011011100111110000
00111101111100010110011111001001
00111011100101011010000011110110
00111100111100001011000010110111
10111110100011010000100010110100
10111101111011100111001100001010
00111101110110111111011100101111
00111101100000011110011000011100
10111110000100101011110110110101
10111110000000010111111100111000
10111101111101110010110111010000
10111101010000000111000110001110
00111100001101101100100010011001
10111101011110110011011011001111
10111110010001111000011001011011
00111101100111010100100010100111
00111110000001110001000001101000
00111011111011101100001110010100
10111100111100111010000101100111
00111101001000101011000111000100
10111101010000110100111010111101
00111110001010100000001111110001
00111011110111001101101011010111
10111101101101011001011100100001
00111110000011011100111001111100
10111101111001010010000010110111
10111100101001011100111010101000
10111110001101100011100100000111
10111110010100110011001110010001
10111101001011110010101001101010
10111101100111101111000100100100
10111101010001000010001111101101
00111101011111111111000111101110
00111101001110010100111001001111
10111110001100101000100101011101
00111110011001011000010000011111
00111101010011111011110010000001
00111101001101010010010011001110
10111110000010001110110000111000
00111100111010011000011110111111
10111101010110010110011111101111
00111101010001100111100100000110
00111101010101010111101001100100
00111101001100001100011101001110
00111011001010111111110111000010
00111011111001101000110010101010
10111110010011010111001100010101
00111101101011011000110010100000
00111011100010010000110110111110
00111110000100001000100101011100
00111101101010011000011100110111
10111101001011111101111111101110
00111101110110000001000000010001
10111010100001010110011010111111
10111100110101101000001011111011
10111101100110110101110100110001
10111110011100100000010100111011
10111110001101010011110111101100
00111110010101010010000101010110
00111101001000101101110011110010
10111101111011101010110100111011
10111110000010111101101010111100
10111100001000000101101110001010
10111101101011011010111100101001
10111101011100111111001011100000
00111101100001010100010100101010
00111101000010100110001010110000
00111101100100111110000011100111
00111101100011011001001110100100
10111101011001000011011000100010
00111011010010100110111101101111
00111110000100100010100011001011
00111101111010011110110110001100
00111101000111001011000000101100
00111110001010011111101000111101
10111110011000101000100001001110
10111110000001011110001100110100
00111101001000011110111010000100
10111110000110001001010010101000
10111101100101010100110111101110
10111100100011010111101100111010
00111110001010101110101001000100
10111101011111100110000000001011
10111110010010100001111110111011
10111110000001010110001101001011
00111101000011000011001000010100
10111110010001100110010001001001
10111011011010110110011000101100
00111110001101101111001001011011
10111101111001001110101111001001
10111110000111000110111100101110
10111011010111111110110101010000
10111100110010101111010110010001
10111101110110110100010110111111
00111100110000100101111000100001
00111110100010010101001000101101
00111110010001101111010111101011
10111101110000000111110110110111
10111101001011100101101110000110
10111101111101110110001001100110
00111110001011100111100010010111
00111101101101000000110001101111
00111100000101000010001101110110
00111110001100111001010100110110
10111101100111011111000001110100
10111011111001011101111100011100
