00111101101010110000010100011101
10111101111111011011000110001110
10111101110101100101001100011110
10111110000001100011100101010110
10111101110100011011101100001111
00111101011010101001011101011101
00111101110010011011001001010111
00111110001010100110111011111001
00111110001111100000100010101111
00111100000110111101000011001001
00111011101000100101110101110110
10111110010111110010100101100111
10111101110101111010010010010111
10111110100111110000101010101101
10111110010111010101100110101110
00111101111011100010001101011000
00111100110100100111110111000101
10111101010101110010111011110101
00111100111000111101101101010100
10111110001011000010110001011111
00111101111010001000000111100111
00111101000100110110000001110010
10111100011011000111011010010110
10111101110000100000111111101100
10111101000100101100110111001011
00111110010010010011110001001101
10111110000010000000100001010010
10111101010001010101100001101110
10111101110100000101011010011110
00111100000000101110110000011001
10111101101010111111010111011101
00111101011011010110110110100010
00111110000110110101001111111100
10111101100111101100100000010001
00111101101000011100110000110110
00111101101101000110111111111111
10111100011010110010111000011011
10111101001111000110010110010000
00111100101010010111101011001010
10111101100111000000111000110110
10111110000000000111111101101010
10111101100101001110111101011101
10111100001000111100100000000010
00111010010010100110001011111101
10111110000110101000001010011010
10111001000001101110011111100111
10111100100001100001011001000110
10111100111110000110000000111011
00111101110010101110001110000111
10111101110111100110101100110101
00111110010000011111000010111101
10111101100111110111010101101000
10111110001001111001010110001100
00111101110000100100100010001101
10111110011101011110000001001111
10111101101000001100101101111001
00111100101000010001110110010111
10111110100110001010000000101001
10111101110000010011010100101000
00111101110010010101100101100010
00111101010001011000111100110100
10111101110110100110100100110111
00111110001111001001100110010101
10111110001100110010100000000100
00111101101100111010110100000100
00111101001000111000000111011110
10111101001011101001000001100001
00111110011111110101110110010011
10111100101000101011001101000100
10111101011010001001010101010011
00111110001111001010100100000010
00111110000000011110010101111001
10111011110000010011001000001100
10111100110010011110100010010101
00111100110001101011100110100001
00111101111001000100100010110111
00111110000010101001011010101010
00111100111011010101001010001001
00111101110111100101001111101110
10111010111011100000110110000010
10111101000100001000000100010100
10111110000000110100110111100011
10111101111101001110100100100001
10111101110100011000000101001001
00111101001110110001101110010001
00111100101000010000001101000010
00111110011010000000011100001000
00111101100100001111010010111011
10111101101110010111000111000011
10111101111111100001101101110110
10111101111101101000101101110011
10111101101000111011100101010111
00111100010001101110110110101011
10111011100010110010010010001011
00111110001100000000011101100100
10111101011101110100111001011011
00111101010110000110001011100001
00111110001010100110110000100000
00111101110001101100111010001110
00111101010000100100101010101011
00111101101010011101101111110000
10111100100001101000111111111010
10111110000111100001101111001001
00111011111001010010101000000111
00111101000110100100001001000100
10111101111101110100011000011101
00111101110001000100100110000111
10111110010001111010100011000110
10111110010100110000111011100011
10111101111000110000100010111101
00111100100001100100011111001001
10111100000000011110001001100000
10111101111110111110100101100101
10111110000010011011110100001001
10111100100010001010100011101010
10111101000111001010000010010001
10111101101101010101000101101110
10111110010010110101110100110110
10111110000010110001001111001110
10111100100101111110010010001011
10111101111010011100011011001000
10111101100011000001100010000001
10111101001100101101100011110010
10111101111111101101010011000110
10111101111010101010011110110010
10111101111010100111111011010111
00111101111001101001111000111100
00111110000001111110110000111011
