10111101011100111110011000011100
00111101000111111110111100100100
10111100001010000000010000111100
10111110011101101000101110101010
00111110001111011101100111000111
10111101110100001101101000101001
00111100010010110010010001011011
10111101100011100101011100001111
00111100101011010000111001101111
10111110010111001010000011101010
00111110010110100100101010110100
00111101110101101100111000101111
10111110001010011000111000001101
00111110000100101111101101110101
00111101011001010110010011001000
00111101101101110000110000010001
10111110010001001010000110111010
00111101001111010001111100000000
00111100110010000011100100001110
00111100111110111011111101111010
10111100100001011010001111011001
00111101100100111011010100001000
10111101100000001011111011110010
00111101101010110011100010001000
00111100100101000110100000010111
10111101111001000110011000011100
00111100000110111100000101111101
10111100101010001001110110100011
00111101101011100111111110001000
00111100100010000111010111000010
00111110000110011100011010101111
00111101010010010011000010010010
10111101110000001100110010010100
10111100010110010110101110010011
10111100101100000010000011000010
10111101100010110011011011000010
10111110000000010111011110010001
00111110000011000001111101110001
10111101110111100000000110011010
10111101011001100011111000100011
10111110001001001111110000101110
00111101101000111111001110101100
00111101111010111100100001011000
00111110010011010001110110101111
10111101000100010010010000110110
00111101111110110001011111101011
10111101111011001100111100011011
10111110010011001111111101001100
10111110000110011110110001001110
00111101001111111100101010110110
10111101010101101011111111101010
10111110010111111010110000001010
10111101101101001010101101101001
10111110011001001101010010101000
00111110001000100011000101011111
00111101000100101010100011010001
00111110000100100100010001100000
10111101010011011100111111001000
10111110010011010100101111111010
00111110000010000110010111010110
00111101100110111010100010011000
10111110001110110011001000101010
00111101111001010010101000001000
00111101101111001111010101100010
00111101111001010000110101101111
00111101001010100000100110110100
10111101000001100111011101000011
00111101111011111011011100110111
10111101010111101010001010001000
10111101110111100100101111000010
00111101101000010111100101110010
00111100100110100101100110000100
10111110001010010110111010001100
00111101000000000001100110010100
00111110001001001101010111101111
10111100100011010100111110110111
10111101010011100010011101111010
00111101000111011110101001000100
10111101001001011000000111001001
00111101100110111111011010001010
10111101100011100111011011011111
00111101011010011110110100101101
10111101101011100000011010111011
00111101011001011110011000100110
10111101101000100111011010010000
00111101001000001100011000111100
00111110000000010111110011000111
10111100110110001101010000000111
00111100011100110001100101110100
00111110000101000101101000111000
00111101101110010011111001101111
10111101100101110011000111110101
10111110001001110000000101110100
10111101011111000100110001110101
10111101101011110110001101000101
10111110001011110010110000000010
10111100100010101100010111000001
00111101010111111111010101000111
10111101110001111010111111010011
10111110010001010111100011101101
00111100010000110110110010110110
00111110000011110001110111101101
10111110001010010101111011010101
00111110010001011000111111111110
00111101000001110110000111111110
10111100010111101000011001111001
10111110000101100000111000100000
00111101100011100100100011001010
10111101100000101001001101111011
00111110000100011001111000101010
00111101101001001010011101000001
00111110000101000010100000010011
00111100101111011100001110011101
00111110001100100001111111100010
10111101001100001011001000010001
10111110001111000000100010110011
10111011110100010101010011110011
00111101001000111000110010011100
10111101001010111001000011000010
10111110000100000111111100001111
10111100011110000010000000001111
00111000010101110111011000101000
10111010110000000000010000100010
00111101100100001100101010010111
10111101100110110000111000001001
00111101110010001100001001111000
10111110001101100001001010001111
10111100000111110001110000110001
