10111110001011110101011011110001
00111100011000000100011010100110
10111110000110111100000000010111
10111101101110001100011001011101
10111110010000011110101001001000
10111101100000100010110110000011
00111101001111000110100010011000
10111101100110101011010100111010
10111101001100111000111011110011
10111101100000101000001011111000
10111011011011101100101010110101
00111101001001001010101111001100
10111101100110010010110011100010
10111101011010010001101001010100
10111101011101010110010000010101
10111100111001110001110011011000
00111101011110010100101101010101
10111110010110001011000101101111
00111011000001010101100000000011
10111101100010011011000010101101
10111101010010010010001100011111
10111110011001010011100111001010
00111101101110010000101000001111
00111101000011100100011101010111
10111101100110110010110001001111
10111101010101110001100001101110
00111101001101010100100100111100
10111101110110100101111011110001
10111101101101001011100101100011
10111110011010111111001111101001
10111110011000011101101111011000
00111110001011011000011100110110
10111101100010100101110011010100
10111101101110001111001101101000
10111100000010000001100001010000
10111101110101101101001011110100
00111101011001101100110001100010
10111110000001010110101100011110
00111101100111100101111010111000
00111101010101111111101001010000
00111100110000010100011101000000
10111101000100111010011101000110
00111101001100101100101110111000
10111101100101101000011111100000
10111101101100110011010000010011
00111101000001001001100000011001
10111110000010001010011010001011
10111100101001100000001010101011
10111110001000101010101000101011
10111110010100011000010100100010
00111011111011011101010101100011
10111101010110011000110000110111
10111101010011111011111100101001
10111100000010001010110000110000
10111100100100010000000000111110
00111101110000000001101010011011
10111101000000101010100100110000
00111101010111000001100011011111
10111110000010100010011110001110
10111110010110110001011100110111
10111101101001100010000001011011
10111101000010011000100000110101
10111101100110100110001111011110
10111100110111000110001010101011
10111101000110010100111001101011
10111110001011000111111000000001
10111101110011110100011011011110
10111101010100010000111110100011
10111110000000110111101010110111
00111101101011111111011111100011
00111101010011100000010000111111
00111011110011101011111010100010
00111101011010011100011111111011
10111110001101000001000011111010
10111110000000010101110010010111
00111100010100110100111011100000
00111100101000011110100001111100
00111011001000010111011101010001
00111100001100111000011100011111
10111011100011000001101010110010
10111110000100110011100010100011
00111101001101011010110100110011
10111110000100110000110001011000
00111100010011001001111010110000
00111100111010110101111011011000
10111100111000101010110100000000
10111101111110100101010010101100
00111101111011000110110110100000
10111100011010111101000010100011
00111100000110101100001100111001
10111110001011000001110101001011
10111101111010011001111111110011
00111100111111101101110010000110
00111100111101100100110110100111
00111101111110001110000001010010
10111011100000011011110110001111
00111100101011000100111000010101
00111101100001110001101000110001
00111101000101001000011100010001
10111110010111000001110001000011
10111101100110111111110010110000
00111101001010101000011001000001
10111101101011001001010010000111
10111101010011011111100000001010
10111101011000010110011001100110
10111101000011101010101001010000
00111100101011011010100110000010
10111110011001110011100001110101
10111110000101010011111101101011
00111100101000101100001100101000
00111100110001011001001000000000
00111101101010111011011111000110
10111101110101000001000001011101
00111101100111001100101000100111
10111110000001011011001100111011
10111101100000011110111011100001
10111100111011001010101110001100
10111101111100000000100100010010
10111101010110001111010000101001
00111101001010010011100111001111
10111110000110101001110011111001
00111110001101100001011111110011
00111100101010111111101001001110
00111101111111010100100111110000
00111110000100010011000000110001
00111110000010100101011001001101
10111101011010101101011110101110
10111110001110100110011111100010
