00111100101100110000110111110010
00111100010010010011000111000011
10111110000011110110101010100110
00111100000010101100011111100100
10111100101111011101011101101100
10111101101001011010010100100101
00111101101100111111011100111111
10111101111001010111110010000001
10111110000000100001001000110000
10111110010001001011001001111001
10111101010101001110010100111000
10111110000011110000010010101100
00111101011010010110010000110010
10111100100101101110010010111010
00111101001101011100011011101011
10111101001000011010100100101101
10111110010000000100011010100011
10111101010100011110111000000001
10111101000111000011101011111000
00111101010100011111011110100101
10111101111101101110000011111101
10111110000011111111000010100010
00111100011100011101111111001010
10111101110111011100111101001000
00111101100100100011011000110111
10111101110001000000100001000000
00111110000011100101110010011101
00111110000111111011111001010101
10111100110100111000111110001101
10111101110010110010001111000111
10111101001100010111010101000001
10111110000010110011101000110111
10111110000010011010101000111101
00111101001010011000001010001010
10111101101010011000100011011001
00111101001100010000111100011010
00111110000101100011101010111011
00111101110000011001100001101100
00111100110011010101010011010000
10111100111011000100000110001111
10111110000001101110101111000111
10111100011101001100011111111010
00111101110101101111110000101010
00111101100101110110000111010101
10111100111010111101111100011010
00111101101111001000001001011001
10111101100101110011001101101101
10111101010001001010100101000101
10111110010100010011101001101011
10111101010000010001110010001011
10111100010000110010001011111010
10111110001000010001010101100100
00111101010110100011101001000110
10111110010100100101001110000000
10111101110001111000110010100010
10111110000100101111100101010101
10111101101111000001110000100011
00111101101100110100010111011100
10111110010000010001110000111001
10111101010110001101101011011000
10111101001000001010101101101100
10110111111110110111000111011110
10111110001011010101001010000000
00111101010011101101100011111110
10111101101011001011000101110001
00111101011100010010000011110110
00111110000010101101101100101101
00111101000010110100111011101000
00111101001110000010101111111010
10111100001011000101001010110010
10111101101101111000000010011110
10111101001101000101000000011101
10111101000101010101010001110111
10111101001101100000111101010110
10111101101000111110111010101001
10111100111110110110100010010000
10111110001001100001011110011001
00111101110000111010101010100011
10111101101011010010110111111110
10111110000100111011011000110011
00111101111011100010111110100001
00111100010011011100000111000101
00111011000001100010001001101110
10111100111110110010110100000000
10111101111100100111110111000111
10111100011110000010100011111010
10111110000111000110100010011101
10111110000010010101110100000010
10111110010001010111000011000001
00111100101110111010101110111111
10111110001100000101011010010011
00111101101111101010010011011101
00111101000001101110010111111011
10111101110000010001010100100011
00111101000110101001011110110110
10111110001011000100011000010101
10111101110111010001110110000110
00111110000010010100111100100000
00111101100111100100001111001100
10111011111111100011100100010000
10111101110011111110101001101010
10111110001010000000010111100001
00111101001110000000110110010101
10111101110101010111000000101101
10111100110111111101110110111010
10111101100011111101101110111011
00111101110000000010100011101010
10111110001100110110101100010011
10111101101011100001010010000011
10111101100010100000011001100000
10111101110110011000001001001101
00111101001100111000111000010100
10111110001001111011000110010100
10111101011001000001010010010100
10111101100001010011011000001110
10111101111000110100011010100010
00111101001101010011000100111000
00111101101101010111110110010001
00111100101101100011011001011111
00111101000101110010100101111000
10111100001011100101011111010111
10111100110010101000110010110011
00111011100101101011111010001001
10111101001000001011100011001010
10111110011110001100010110001011
10111101101110101100000100111001
10111101000110100101001100101001
00111101100001101110010010010001
