00111101011100001010110011010011
00111110000000111010100111110011
00111101011101001100011100000010
10111101110011001000111011011111
10111101011111011011001001101011
10111110011011110110101010010101
10111101100000011001110000111011
00111110010101110101101000100100
00111101011001100101000111110001
10111110000110110010011101111011
10111101111010100111111011000110
00111101001011100010000101001110
10111110000010110011010000010001
10111101101100000001011110001011
10111100111111110011001100000001
00111101010011100011101001001110
00111101110101110010110101111011
10111101111000110110000110001111
00111100010111010011111100001010
10111101111111001001001100100001
10111101001111011010110110111010
10111101011100110111101111001111
10111101101010000000100100110001
00111100111100000011000001010110
00111100100000101001101000100111
10111110000010011010110001000111
10111110000010110111110101000000
00111101001100000011111001011100
00111100111010000010000111100111
10111101111000011000011100010111
10111100110000011010101100011010
10111110000101010000001100011110
00111101110111100010110110010001
00111100000110010100010011110100
10111101000111101100100001101111
00111101100110101010101100101110
00111101100011001000100111101001
10111110000001011110011000011000
10111101101010100011000000101010
10111110010000000011000000110010
10111101110010110011110000101100
10111110011101110101110001010100
00111101100010010101011110110101
10111101101111011010000111101101
10111101010111110110000010110011
10111110001001111011110010111001
10111101101010010110011101001110
00111101111101000101010101100101
10111110011001110010111000011000
00111000100100110100010100111000
10111101010110011001101101110100
10111110001111110000110111111101
10111101001110100011001101110001
10111101000110111110011001010110
10111110000001101000111000010001
00111101000001100101111011011111
00111101001000100000010110001010
10111110000100011000000011100110
10111011101011001101100000001011
10111100110010011101000101100011
10111110000000000101001110000100
10111101001011000011111001110111
10111100010101101111010001111010
00111101010000101110010100000100
10111110010010101001000000010000
00111101101100000000110001101011
00111110100001110001011111000111
00111101001000101101001101101100
10111110001101111001010001100100
10111101110110001110000100110101
10111100110011000111001010101111
00111100101010110010101001011001
00111110000010000001100011010110
10111100100100100111011011100111
00111101110100011001110101000000
00111101111101011001111100110001
10111100000100101111111100101011
10111110000110111111101011001010
00111100110110011000000111010100
10111110001011001000110101100010
00111010100011001100110000111110
10111110011110000100001011111100
10111101011101000110111101000010
10111110010001001100000010100111
10111110000111111110001010100001
00111101101000110110101100001111
10111101111010011001011011111101
00111011101100000101111110101100
00111110010110010100001011011110
10111101101011011111010000100111
10111110000000000100000001010010
10111101001101010111100001101011
10111110011010100011100101010011
00111101100101100101001101110111
10111110011100100010010011001010
10111101110001000111101100101010
10111101111111110101010000001111
00111011101110110110111001011101
00111101110100001111011111010011
10111100001000100010001101100011
00111101110100000100010101111110
10111100100000000110100110000101
10111101010011000101111111010111
00111110011010001100110000101000
00111101010001100001011100111011
10111110010100001110001000010110
00111011010001111101100011001000
00111101100110011011010111010000
00111110000100110101111110010111
10111101111100010100000010110010
10111101110101110000110011101101
10111101111101001100100110000011
10111101001110011101001100001100
00111101001010100100001100011100
00111010101100110100001100000111
00111100111110111011001100110000
10111101100101011001100011011111
00111100100010101110010001000000
10111101011111010101000010010001
10111101000101110011101100111111
10111110100000011100101011111001
10111101011011010111110010110110
10111101011011011001101111101110
10111110000100100110100111100101
10111101110110110100000110100100
10111110010101111101101111101010
00111101110110111111110010100000
00111110010001001110001010110001
