10111101111011000001110001101110
00111110000100100101001110100000
10111101001110110110001000111011
10111110010001010110000001110010
10111110001011110010000001010100
00111101110010100011011011011110
10111110000101010001010010111110
00111101111001111001000011101110
10111101001111011110110101000110
00111110000010010011110011001111
10111101101111110011111000010100
00111110001100001011111001001010
10111101001101011011011110111010
00111101001110000100001001110100
00111101111001010000100011001010
10111101100011011010100000001101
00111110001111101100011100111110
10111110100011111001011000101110
00111101000111100001111100000001
10111101111111101000000101000000
00111011001111100011010110111010
10111110000101000010111110011010
10111101100001010010011000110111
10111101100011011100111110100111
10111101111011000001111001000100
10111101101101101101000101010010
00111101101011001011100011111010
00111110011000000100101111010100
10111101000000101101010101101011
10111010011001000101011100101011
10111110000000110110101100100000
10111101110000110000000101110101
10111101111101011111001101111110
10111101100011100110011101001010
00111110010001001000011011001001
10111101011101100101000101010001
00111101000001001000111001011000
00111110000111000100001010110011
00111101110100110001100010000100
10111101101010010100011101111001
10111011100010011000101110011110
00111110000100101110110011010111
10111110000101000001100100111010
00111101010010111011100101000110
10111110000011100011101101101100
10111101101000001101000110001010
10111110000110101011001110010011
10111101111001010010100111000000
10111100111101001111011110101101
00111101101110001101001011010110
00111100001111011101100011111011
10111110011001011111010110001111
00111010111001101100110101100100
00111110001001000100111011101000
10111101101010011010001011001100
10111101011000111010001101111011
10111101110001110011010001011101
10111110000100110010110100101000
10111110000111100111110101100111
10111110001001101000011010010010
00111100010010110100001100001001
10111110000001001000100001011100
00111110000101001111110000101010
10111100100111001011010111100011
00111101011111111000010110010000
10111101110110000011101100000100
00111100100101010110100101100011
10111101100010110100110011110000
00111100110111001111100101111001
10111101111111111110100000000011
00111101010101111010100000000010
10111110000101000011000001111001
10111101011100111110010001100100
10111101010001011011000011010110
10111100101110010000111111000000
10111110000001110010000101010111
10111100010110011010010001011010
10111100001100110000000101010111
10111101011011001101011000100011
00111101101111010001101110101000
00111101001100011100101100101011
10111101100101111000101110011110
10111110010110001101100101110010
10111110000010111010000101101000
00111101010101110011101001010100
00111110000101110001101000111111
00111110010001110111101111111001
10111110000001100111001001100000
00111100000111111101001101000110
00111101111100101101001100010001
10111110010001011000111010100000
10111110010000100011010101101001
10111110001001101010111101011010
10111101011111101100101100010010
10111101010010101001101000101010
00111101010010010010111100101100
10111101000010111111100010001011
10111100011011001100000100000100
10111100000111011101001001100110
10111100101100101010101111101100
10111101011100100111011001001011
00111101001110010000011011010000
10111011111101010001001110111011
00111101110101110010001100101101
10111110011011011001010110001111
00111110000110100110101011011111
10111101000101101000010111101111
10111110000001101001000111100000
00111101010110100000111101101101
00111101101110101010100110101100
10111100011101111011100110100010
00111110000011100011010101001001
00111101101110010110101101101101
10111101011100111001100010100010
10111110000110001101001000011110
10111110000000100000111110001010
00111110010000110010111001101110
10111101111100111011001110111100
10111101110100000001110111111011
00111101010110000000000001010100
10111110010110110010000110010100
10111110000010100001110000110110
10111110000011010000011001010010
00111101101010001011000101110001
00111100101011111111011010010101
10111101100101100010010001001001
10111101001110111011101010110100
00111101110000000011001111000001
