00111100100010001001101111110110
10111110000100000101101100111100
10111101100101101001001110111010
10111110010000011110011011110100
10111101101101001011011000101100
10111101001110010100110001000110
00111100101000010110010010011111
10111101001101111100101110110100
00111101101011111010100010101011
00111101111101101110000011110100
10111101111110000011011110101011
10111110001110111111110111010010
10111110100000011110001001000010
00111101010010110001010010111111
00111101011000010010101100011111
00111101001100101100110001001111
10111100001111101110000011101010
10111110000010110100111000000111
00111100000001010101010010010000
00111101100101011101001101110011
00111100011000001010010101011101
00111110011000001101010100100101
00111100111111111001111001101111
10111110001101001110111010001110
10111110001100110001100110000001
00111100111000000111110100000111
00111100100111001111000101010011
00111100111110110111110111111000
00111101100010011000101000001110
00111101101111001111000011001111
00111101010010001011100001000001
00111100011001000001100111101100
10111101111011001111001010110111
10111101100100110001111101110110
10111110000110000001001110001011
10111100011111011100110101001100
00111101011100000010011001010010
10111110010000000001101101101011
10111101101110111110100110010001
10111110001011111010101001100101
00111110001111001011001100101000
10111110000001111111010010010010
10111101111101010110100111101111
10111100100010000001010011111010
10111011010100010011001110111100
00111110001000100111110010111101
10111101100011110100010000100010
00111101001001101100010001001001
10111110000001100101111001011101
10111110011001110011010010110100
00111001100010110100110000001111
00111101111101000100101100100100
10111110001111100000011000010101
00111110000000101110101101001101
00111101110010010100011000100100
10111110001101000110100001110000
10111101101101101000000111000000
10111101000010101110110011100011
00111101111100011011100101110100
00111100001100010111110011110101
00111100010110110011011111010000
10111101000000100111110110111000
10111101111110001110111010101010
00111101000110100011110111010011
10111101001100101111010000101111
10111101010100111001111100001111
00111101101111000110110010111011
10111101110000000100011100111110
00111011111110011010011000011101
10111110000010010001000100111000
10111101100110101001101110010011
10111101110111001010011011011110
00111110000011000001110110111000
00111101111011101111011000010111
10111101000000000010001111101000
00111100111110100010111000010010
00111110001000111111110011001111
10111100000000000100101100000011
10111110001100010101001000010101
00111101011001100100000100100000
00111101010101110000000110101011
00111101010100010101100000100001
10111101010000101010100111011111
00111101010110100000010000110011
00111101111000100110000101000100
10111101100100110000111111101100
10111101101001111101010100110111
10111101000000100110011100000000
10111101101000110010101001110011
00111110000010101110010100110011
00111100101100010001111111110000
10111110000100110101100110001011
10111101001011111001000111100100
10111101100111101110110101001111
10111110000100100001010100101101
10111100111110001001110000101001
10111101101011010100010100010011
10111101111011100000100010101010
10111101110000101111010110111110
00111100001011011001000101110111
00111101111011000110101101000011
00111101001111000111011000111111
10111110001110010000001000000111
10111101010101000001101000011101
00111101100011011000110111001000
00111101111010110010000111000000
00111101100111001111110100101100
10111100110011110000100011111011
00111101000100011011001100010000
10111101011010001110111010001011
00111101101101010110011110111001
00111100101101010011111011010010
10111110001101000011110000010011
10111101101110010111001101110100
10111101111001111000010011100000
10111110010001011010101111100111
10111110000010010001000010100100
10111101010111100111000010010010
10111101010010110010110100001111
00111101111010001010111100100011
