10111110001101011010101011010100
00111100011100100011110001111011
10111101110110011110001101001110
10111010101001111110000011101110
10111101001000111111011000000111
10111100010010110101111000011111
10111101110100100111000101101010
00111100100001001111111110000001
10111110001010010110100010011001
00111100101010000111101111110101
10111110001000101000011101101110
10111110001001010100010000111101
10111110001010001011001101100101
00111011010011100111000101010111
10111110000001100111011100110101
10111101101100111010110111000100
00111110100001011000001110111101
10111101100101111110011101010011
00111101101010001111010111100000
10111101101001100000000100100101
00111101010010001101110100110001
00111110001010111001011100001101
10111101111100010000000110000110
10111101110000111110011101100100
10111110001010100011110101001010
10111001110001011101011000100001
10111101110110000100001101010011
10111011100001110100101001000111
00111101000010100101010111100100
00111101111000010111000000000111
10111110001010101001011110001010
00111101100010100011100111000001
00111101010000110101010110100011
00111101100101010100101001001111
10111101100010000010100001000110
10111100101001101001011111100011
10111100111110001011000010100010
10111101111011110000010100000001
10111100110000000110100110011000
10111110011001001010000011101011
00111101100001110001101000110110
00111101101100001100000100001010
00111101110111000011011101000111
10111011001000011010101110101111
00111101110001000111001001100100
00111101011111100110011011100100
00111101001001011111011111101101
00111101001111010010011111111100
10111101111110101000000111000001
10111110001011110001011010100000
10111110000011010000100101111110
10111110000011001111110000110100
10111110001010110111000110001001
00111101110010000001100111001000
10111110001001110010001011010101
00111100100100101110101101110111
10111110001000001010011001001001
10111101101011011000111101100100
10111110001110110001011101100111
10111101110111000011000111110011
10111110000101111100001000010111
00111011000101101101010000011011
00111101111101011001011100111100
10111110000111101000111111111000
10111101010010001001011011100110
00111101000011001000001100111001
10111101011011111010001111111011
10111101100101111110100100011101
10111101000110001100100100100011
10111101110011100100011111110111
10111101110111010000011010001010
10111101101111100000001100100111
00111101100100001111001110110100
10111110000111110000011011111001
00111100101101110001001101101001
00111100101111111110101001010000
00111101011101010001000100010101
10111100101110101010011001101001
10111101110001000001110011010011
00111110000110111101010001101101
00111101010110000111100010111011
10111101100100101111001010001111
10111110011001001011101110100010
10111100111100101010010010001110
10111101111110001100011011111011
00111101101000101011101011001100
00111101110011111110000001110111
00111101100010110100110000000001
00111110010001101000000101100101
00111110000100000100110100110111
10111110000101010010110110111000
00111101110100011010101110100010
10111100111100000000000100001100
00111101100101000101000100100001
00111100101101001101000101101111
10111110010001111101000101100010
00111101001000110111000111111110
10111011111010010000100011101001
00111100110010111010000101100111
00111101010010010011100101111000
00111110000001011010000011010011
10111110000011111000010111101111
00111101001010011011110000111000
10111101100011110100010011001101
00111100011011110100101101110110
00111110000011111001100100001001
10111101111000000000011110010100
10111101101100111000010001101011
10111110010011001010001011111011
10111100100111110000100000011111
00111110000010101100010110001000
10111101100011110100001111001000
10111100111001100101111001111110
10111101100111000110000011011011
10111110000111100010000001110101
10111101101110111111010001011111
00111101010010100010101000001001
00111110000101100110101011110001
10111101111001101111100111010010
10111101101100100100111000000100
