00111101000010111111101001011101
00111101001011110111001000001011
10111110001110101001100110011010
00111101110011111000100000101101
00111101110000011001000011010010
00111100011100111100000110000011
00111101111011001110110010010100
00111100111010011100011101111101
00111101101101100110101110010100
10111110010101010101011010100101
10111110010010000100100100101110
00111101111000011111111010010101
10111110100000000100100000110010
10111110010001011101110010010001
10111110001101001100110101001111
10111101101001101111100011011110
10111110001100000110110010001001
10111110001101000100001100110101
00111101001111110100100110101011
00111101100100110111010000000000
00111101010011011110011011101010
10111101001011111010100101110011
00111110001000011000010000110011
10111100100100100011110101011101
10111101101100110110000111001111
00111101110000111000010110000101
00111100101101010000111000100000
00111101010110110001010111110001
00111101000011000011101000000100
10111101000000110010100110110000
00111101100010100100010110111011
00111101111110000000011010101101
00111101101111001101111001000000
00111101000000010010011001000001
00111011111111001011110010110110
10111110011000010010101001110101
10111110000001001110000011100110
10111110001000111100101100011100
00111001001001000000010000101110
00111100000110011100110111001010
10111101101011111011111110000100
10111101010000010000101101111000
00111101010001011100010101110100
10111011000001001111110110010110
00111100111001111110011010001101
00111101111110100111110011001011
10111100010100100001001011111111
00111100010011011111010011000111
10111100011010101100001000111010
10111110001111010011100000001011
10111101011011011010010000000111
00111101011001000011001000001000
10111110011010000101110010101001
10111101101000100110001001111100
00111101101000001111101000111000
10111101100100000001111010010011
00111101110100101001110111001001
00111101110101100010111010001001
00111011101111100011001110011111
10111101100100100110010010010110
10111110010101010100101001100111
10111101110010101110011000101001
00111100101111101110101010000110
00111101100010011101101001110111
00111101101010001101011000100110
00111110000001001001110011000111
10111101100010000100010011010010
10111110000001111100101011101010
00111110001100011101111110110011
10111110000100001000110100110111
10111101100100111100100000111101
10111101101101010111011101001000
00111110001000111011111000000100
00111110001101000100001001111100
10111101111000101101101111011111
10111011111010011001011010111111
10111110000000100101010111110010
10111110100000001000000010011110
00111101010100010100000010001000
00111110001011110101001010001000
10111110000100000100000110001110
10111101100001100001010000111001
10111011100001000100101110001111
10111101100110000101000010110010
10111110000010100000100110001011
00111100100011110111111011100010
10111110010111111111000010010000
10111110000011100001110110010011
00111100011110000101110111100101
10111001110101110101000010111111
10111110000011110000100001010000
00111100111001110010101100010110
10111101101110110110100110010000
00111101100111010011101000100011
10111110010000011010110001000100
10111011100101000011010111011111
10111110010010111101011000010001
10111110001001111011011110110011
10111110001011011110010110011011
00111101010110001101000111000100
00111101010010000110000001011000
10111101110000111010000111101100
10111110010001100011111101000001
10111101101011000011101001101000
10111101001110111011111100111010
10111110000010101010001110000101
00111101101000001100100011001010
10111110100011110111100100100000
10111110000001011011111110011110
00111010010000100000101101011010
10111110001011011111110011011001
00111101001011011101011110110101
10111100111010010001111111011110
10111011110100100110010000101111
00111101110001110111100000111001
10111110001111001001111110110010
00111100101001010110001100101101
10111101100111101010001000000101
00111110000011001011011110001110
10111101110001101000100000101010
