10111110000000110100011100101000
00111100000100110110110101110000
10111110000110010110010111110110
00111110010100111001100100111110
00111101011001101011100001001100
10111101001000100001011000001001
00111110000110010010000001110111
10111101110011011010101101111100
00111110001101010011000110100110
00111110011001010111110001000001
10111110000001111010010100111110
00111011011110100000001010000110
10111010101100001010000110011100
00111011100010110000000101000011
00111110000001101110011111000001
00111101100111111010000001000001
00111101100011110110001100101110
00111110001111101011101010111011
00111110000101001101100000111111
10111101000111110101110001111110
00111110000110001100111101000110
10111110011010000110111110100011
10111101001111010100110100010100
10111110001101011110010100011110
10111110001101000001111100101111
10111101010101111011111000111100
10111110001101010001010001000110
00111110000000100100100101111111
10111010001100101001000101111011
00111101001101010010011010010111
10111101111001110011100001101110
10111100110111011011111101101111
10111110000100111010110010100000
00111101111010001010000101010001
00111101011001100110010011010110
00111110100110111111110010010100
00111101110111011001000010010100
00111011100000010111000110010000
00111110001000001011000101000100
10111101110010110011100110100111
10111100111000100001010011011110
00111101100101100101000000010011
00111101000001101110111110001100
10111110000001010111101111100011
10111110000001110011100010110010
00111110000010000101101101101111
00111110000100111010100100011111
00111110000101000111110011111011
00111101101100000010100000011111
10111100110010010101011110101000
00111110001100110010010011010011
10111101011010010011111010100001
00111101100101111100001000001000
10111101000100011011010111010010
10111110000011000000101110000010
00111101110011011011110011100001
10111110000001101000001000011101
10111101110101000111010101110101
00111100100100010000100001101111
10111100101010100111100111111011
10111110000010100111101101010110
00111101010101110001000100000001
00111110010001000000110000110111
10111101101000010101110011000010
10111110000010000111111101111010
00111110001001110111001110101011
00111101100000001110101010010110
00111100110010100111010001000010
10111101110101110010110111000110
10111110000110001111110100010111
10111100000001001000000100101111
10111101011011000011000000110101
00111110000000110000010110010000
00111011101110111111110000100110
10111101110100110100011000000100
00111110001011000110001011011100
00111100011110010110100011011011
00111101111011001001010110000101
10111110001011100111011110100111
00111101000001111100010000010000
10111100101010001100000110100101
00111110001001100100101011100101
10111110001000110000110101011000
00111101111100001101100001100111
10111101000001100100110001011000
10111011011000010100011111000101
00111101100000001100000010110011
10111101000111101110001110000111
10111100111010000111110000001101
10111101100100100110111001001111
10111110011010100010101001111100
00111100010011001110001010101011
10111101010010111111110101111000
10111101100001100000110001100011
10111110000011001100011010011100
10111110001001001011000111000100
10111101011100100111010110000111
10111110001010101000111011110101
10111110000100110010111101001111
00111101110101111101000101101000
10111100000101110011000110000101
00111100011100110101100010100011
00111101001110010111100011000000
00111100100010010010110001111101
10111101010100100000011111001100
00111101000000100101010110110011
00111100000010001101011001000011
10111101011100010111110011111011
00111110001000110101001000001110
10111101001110111100000010110001
10111101111010001010001000001111
10111101101010010001000000010111
00111101100011001111110000101011
00111101001101101011010011111111
00111101110011011101110101100101
10111101011110100101111001011111
10111101011001000010000000011100
00111101100101011110100010111111
10111110000101110111010010000110
00111110001001000010010010111011
