00111110010001100001010100101011
10111101110001100111101111000001
10111110000101100100000010000010
10111110000010111101010010111001
10111110000101110001111111000110
10111101001011100111101111110110
10111100111100101011110010101111
00111110000001101101000000010111
00111110000101110101101000001110
10111101101000101001100111111101
00111101101101011011110111111001
10111101101000100010100111111000
10111101010110010110011111111000
10111101110011000110001001101100
00111101111000001111000001110001
10111101001001110110110111100111
10111110010011001101001001010111
10111100011001101100001001000001
10111101110001110011101000100101
10111110001111001110010111101111
10111110000010000001111111001010
10111110010101001100010001100010
10111110000001111101011111100011
10111010110110001011110010000110
00111110011110010100011011011100
00111101111010011001110101111010
00111101101101110101011100000100
10111100110011110001001010010011
00111011101100111001011001001010
00111101001111000010001001010110
00111110001001010011100101011111
00111110001100100100010000110000
10111101000111100011111000111010
00111101001001001101000111100010
10111101110110101010100111000110
10111100100011101000101101001100
10111101011000011110101101101111
10111011111100110000011110000010
10111101111010100011001000000111
00111100110100000011011111001001
10111110000001011100010010111010
10111110000001111001010101000010
10111101100100001000011100001110
00111101110001001001001010111000
00111101101100011100110000100110
00111101100000111101011101101001
10111101111110101010110000110101
10111110000001010001000001100101
10111110001011010001111000100101
10111101001101011011000000010101
00111100111101011010001001100010
00111110010111110110011011100100
10111110010001011000001110100010
10111101000011100000101110000110
10111110001001011101000011100000
10111101111111011011100011101010
10111100001101101100001110101010
10111101001000000100111001010101
10111100100101001010001011110111
00111101011000011010001110000110
10111101101010110011010011001000
10111100010000111100000100111111
10111110010010011101101111110001
10111101101011111010001111101001
10111110010000001001000011011101
00111101110011010111001011101001
10111100100011111010110101010010
10111110001111101010011100101110
10111101011011001100001000110101
00111101011011111110011001101011
10111110000011011000101110000001
10111101000111010001110000110011
00111110000101100001000110011100
00111100001011011001101011001011
00111110011110110100000001011001
10111110001110100111000011010010
10111101110100001000001101010010
00111010001100010101110011001100
10111110000101101110110101100010
00111101011100011001111001111010
10111100100010101111001001010101
10111110010011000000010110110100
10111100000111110111110110111000
10111100011111001110001001100100
00111110100101000011100101101010
10111101000110000111111000011100
10111101001010101111111110110110
00111110000001110110000111000110
10111101000101010111100000101100
10111101100110111000011110101010
10111110000101100100000010101101
00111101001111101101101000110011
00111100101010010101110010100001
10111101100001011011000100001101
10111101110000110011111000011111
10111101110111100100010100100110
00111101110010000000001011101010
10111101101101101101100010111010
00111101100101010111111011001010
00111100000100010100111001101000
10111101110110001010111000111111
10111110001000101010000110010110
00111011011110100010010010000111
10111110011111100100100011011010
10111101001001100101111001011100
10111101001011010101011001111010
00111110011001000101111010101101
00111101011000011001101011100110
00111101011010011101110011000001
00111110001100011100010000101000
00111100101001100101110001100101
00111100101001100111101111110111
00111101010000001000010100000111
00111110000010111100000000011001
00111110000100101001000111111100
00111110000100000011011011111011
00111101010110010100101011011101
00111101110101011010010011100101
00111101001001101010000001110100
00111100100000011011000111000010
