00111100110001101001001101111011
10111110001100101100000000011011
00111101100110011010110100100100
00111101010000110111000010111100
00111101110100000000101100000110
10111101100101100111010010110011
00111100100110111100001011000101
10111110001000110001111101001001
00111101100110110001011010110111
10111101110010110110110000100011
10111100111100011000100110011111
10111101010110111100101101000001
00111110000000110010010001100101
10111110011110001001011010111001
10111101101110101001011000011011
00111110000110001011000101011000
00111110011100101011111100001010
00111101011000101111111011111111
10111101110010010000111001111010
00111101110111100000011110111000
00111110000101101100100110111110
00111110100101100011000101000110
10111011100001000101001111010111
00111101101100111001000010011111
00111101101000101010110111101100
00111101100000111100101001010101
10111101111100100001001011111101
10111011110100001000001011010100
00111110000001111100011010111110
10111110001011011001001011011000
10111110001111110110110100011001
10111101110101000111011110101010
00111101001111110111101100001100
00111101111000100110101010111110
00111100011101101010010110011000
10111110010001101001010100110001
00111101110101010011100100011010
10111101101111010011000110011101
10111110001010100011110110000100
00111101010111100111001001100001
00111110000100001100101011011111
00111110001010010000001000101000
00111101111110010101101000111011
10111110000001000110001110000101
10111101010101110110110000000100
00111101000111000101111010010111
00111101110111000011010010010010
00111101101011101010000111110101
10111110001100100001100011000000
10111110011101001101111100010100
10111110100001110110101111001101
00111101100001101000101010101011
10111110010001110000010100011101
10111101110001110100001001110111
00111101001110101100010000100000
10111110011110111010100010100000
00111101001011101001100101011000
00111110000101100010010101101110
00111110000111100001000111001010
10111101101011100001111111110000
10111101101101000000001010010001
10111101011001000000001011100100
00111101100100000101000000110100
10111110001001101011001100011110
10111101001000100000111000111110
00111101011011100001010011101010
10111110011010000111111000010000
00111101010000100010001000011110
10111101011101000011100101111100
00111110000001010000010110101000
00111110000110100010110000111001
10111101111110100000001101011010
10111101000011001110111110010001
00111110001011100110010010010111
10111100111100100101010101000001
10111101101100100001001100110011
10111101010111000110011010100111
00111110000110011010110111110011
10111100001100100101010001000100
00111101100010110000011011111011
10111100000011001000101001001000
00111110001001100110101010101111
10111101001010101011010101010011
10111100010110110000110110000111
00111101000010001110000110011001
10111110011101110100011111110111
00111100010100101011011010001111
10111100101000101101101011010010
10111100100010111001111111011000
00111101001011111111001001010100
00111101100011011001010000000011
10111101100100011000011011110101
10111100110111110010101110110110
10111101101011110010000111110100
10111101011101011001001011011000
10111101110010010100000000000100
10111110100110100011110000110111
10111101110000111100000110110101
00111011110011000001011101000011
10111110001100101101110000011111
10111100000100111111001101010000
00111110001110110100000001010011
00111110001100000010001110011111
10111100011100100001011101001001
10111101011010111100110000011101
00111101111100011111110001000000
10111011000110010010111111011100
10111110010001000110000000110100
10111110010000001101010011100101
00111110100010001000010001101000
10111101010110010101000111000011
10111100111100111001000010010100
10111101101100111111010001100111
00111110000110010101110110011100
10111101011000100110000101101001
00111101011010001101010100110011
00111100111100001001000010000111
10111101000101101101100001000110
10111110100000010101101111010011
00111011110111000010100011000110
