10111101010110111000111111000001
00111100101001001100110001111000
00111110001011001111100010100100
10111101001011000001110010111000
00111110000001111001011011000000
10111100000110011000100010010110
10111101011101110111110101000111
00111110000010011101101001111100
10111110010000000000011100001001
00111101011101000000101010000010
00111110000000011101100110011001
00111100000000010110011000111000
00111011010110010101000011101011
10111101110000111001100110110000
10111101010001011100101011110100
00111101101001011101001111100010
10111101010001110101000100011110
00111101100011000110111111110101
00111101001100110011000001001011
00111100111001111010001101000010
10111110001000110010001001100001
10111101100110111110110011010110
00111110000100111011101110000001
10111101010001000010101000010001
00111101101001000000110111101110
00111100100010001010000000001011
10111101100000110000010000001101
00111101110000101100010111111010
10111101100100100111000111011000
10111110001011100100100011000010
10111101101110010001010011101000
10111101110011010000110000000000
00111101001011101001010010101101
00111110010100000000100100010111
10111101000110000001000101111110
00111100110110101101100001100001
10111101010110011111110111000100
10111110010001100001010010111111
00111101000010111100011010010100
10111110001101000000100010101000
10111110000101010011110100100111
00111101110110110011011110011011
10111100010111011111110100011010
00111110001100010000011011000111
10111101000100100100010001001100
00111110001011101001101111101110
10111101000010011100111100111101
10111101110010010000010010100101
00111101111010101011110111011010
00111110011001010000111011011011
10111101100110111001111001000101
10111101101011110011011000001101
00111101111010101010101110011011
10111110001010101111110111111111
10111101001101101111000001100001
00111101010000000111110011101011
10111101011011111011111001100001
10111101100010101100111101011101
00111100010011101010110111100011
00111100111001111010001100011110
00111110000101101111011111010100
00111101101000110110111000111010
00111100111111100101000001101010
10111101101110101110000100111000
10111110001000001110100101000011
10111101001010000101110110000001
00111101011000110101001101000111
00111110011010110111111000101000
00111101111010111010111011100101
10111101001001100001111100010110
00111110001000010111101101001111
00111101000110100000101001100110
10111101100011001111010111110010
10111110001110111101101100101000
00111101001001100110011000011011
10111110000011011001100100011100
00111011101001001000000010110000
10111101011111101011101111010101
10111100111010111110101101000101
00111100101011111100000001111001
00111110000101100001001111101011
10111110000110100010100001100010
00111101111010000110110011000000
10111100001000110001110000111110
00111011111000111110000000011010
00111110000000111101010110000010
00111101100110110101100011110111
00111101101000111001101111100101
10111101100001011100010011101000
10111101101101011001100111101111
10111110000010010011111000100101
10111110011001000011011111100000
00111101100011001000011101000101
10111101000000101110010010000011
00111101101111010100001011001111
00111110000011111010101001110001
10111110000010110101101101110101
10111100111011110110100101110000
10111011101001101010111111011101
00111011101100011111000001111111
00111101100010010011101011000001
00111101111000110110111100011110
00111101101011111100100001111010
00111101010010110111010110110101
00111101111011111101111110100000
00111101100010100010010011110100
00111100101100110011101101001100
10111101101101100111000100000010
00111101010110011000010100110010
00111100111101011001110100011101
10111110000100110100010010110010
00111101111001100110111000000010
10111110000100000001011010110100
10111101100011110100100110111000
10111110010100001111110101010110
10111010111100011101111110010110
00111100110010010010100000100110
10111101011000101000001000101111
00111101110010101100001000111001
00111010100001110111000101000101
