00111101101111111111100100011000
00111100011100100010011001110010
00111110000101110110000101001010
00111101110100011110011001010100
00111101110100000101111011110010
10111011011100011001110001111101
10111100111111010000001011111010
00111101101100000001010011000000
10111110000001111111011000010101
10111101010110001000110110101011
10111101110001100111010011110110
10111100111100011100000011101011
00111101100101010011100011111100
00111101011011001110001011000110
00111101000101111100100101100011
10111101010011110001110001101000
00111110000001110001001001000101
00111101000111100010000100100010
00111101000101100000010000110111
00111110001111000011011101100101
00111100011100010110000110011101
00111100000110101110001011100000
00111101111010001111011011101111
10111101111010100010111111011000
00111101001011001100101100100111
00111101000110010111011010010100
00111101001100011110110101110011
10111100101000110110111100110110
10111011010010000001100101011110
10111101100010010001101100001011
10111101110110100101000100100010
10111100010101101000111101110101
10111110000001010110110011100111
00111110000000110100101101011110
00111100010101011010000101010110
10111011010001100010000010001111
10111110000000010110110011001110
00111101111100110101100101001000
00111101001100101001010100100100
10111101011100001011000111111110
00111110000101111100010010010000
00111100101111011111001001001000
00111100010000110010111111111111
10111110010100011011010011110101
00111101111101011011101100100101
10111100110100001101110010110100
10111101100000010010011011110000
10111101000111110111110101000111
10111110000010001000110111111100
10111101111001110101110010100000
00111110000000100101010010111100
10111100011000011001110101110111
00111100001111010001111110000110
00111101010000110000000101101111
10111101100100011110000100100000
10111110010010010100110001100000
00111101001001011011011101110010
00111101010100111100001001111010
10111100111010100101000101101001
10111101110100110001010011111000
10111110000011011101101101110011
10111101101101100011011110110110
10111101011011110001100000100100
10111100101111101010111010000111
10111101100001111110000100011011
10111100110001000010110010101000
00111100111111011100110000110010
10111100101011111101011111010101
10111110001110001101111111001010
10111101111010011011001100010110
00111101010000101010001010100100
10111100010000011110010101011111
10111101100001101000110011011110
00111101000110001010011010100001
10111101010010010100110111010001
00111110000111111101100100010001
10111101000110100101110011110110
00111100101011100110001010001010
00111110011000010010001111100100
10111101011110010010111110111100
10111110000110000101110000010101
00111101110100100011001001101110
10111011101111111011011100100100
10111101111010100010100001010001
10111110000000000101011001011110
00111101101001101010000001100010
10111100111011100000111011111110
00111110001001100000011100101111
00111101001011111101111011111000
10111110001111110001011111110111
00111100101101010110110101111011
00111101100100111101111111010111
10111101110111100011101000101000
10111110001011000011111100001100
00111101100110111110000100110100
00111100101100010111111001111000
10111011010010101011011110011101
00111101000110111111110100111111
00111101100111101110110110011101
10111110000011111011001011101001
10111100010110101111100011111000
10111010111001111100000110110111
10111101111001010101011001011000
00111101111111001010101001011010
10111110001001001110010000111010
10111110000010101000001010010101
00111100111111110010111011111011
00111110000001011100100100010100
00111101110100110110001011010010
10111101011100110000101010101101
00111101111111100100001001110111
00111011000101100000000100010010
10111101110110111011010110000101
00111110001101000101000011011010
10111101011111110100111001110111
10111110010001100101000011000010
00111011001010100000000111111100
10111110000110100001111001100110
10111101100101010100100110000111
00111110010101000100101001101001
