00111110000001010110100111010001
10111110001000001100100110110000
00111101100001111001010100100011
10111101110011011110011000100100
10111101110101010110010111110110
10111110001001010111100011000111
10111110001001111001100000111000
10111100000010010000000000000100
10111101101010100101001000110110
10111101101111001011101011101001
10111110000000010101010011000100
10111100111100011101101101001011
10111100101111000111110001101101
00111110000000001010110110001010
00111101110001000000101111110010
00111110001001000101010100011001
00111100111101111100000010001000
10111011111000010010100011111011
10111101101101010010100000100100
10111101111011011100011100101101
10111100110011110011011100110000
10111101110110010101010101011100
10111101000011001000000101010001
10111101111010110010000101101010
00111101100001001100100000000110
00111100100111011010100000101101
00111101100011000100011101100100
10111101110110110000000101110110
00111101110111011111001110111010
10111101100110001011101010110110
10111110001010101100100111000111
00111101000110000101111010111011
10111101101100110011111001000111
10111110010001010011101001001110
10111101110110000100001011110010
00111101001100000000011010100000
00111101110011000011001110101101
00111101010101100101001111011001
00111100010111000100111001101000
00111100101100011100000010000110
00111101010101000010111010001011
10111101001110111000101011010110
10111110000001101111010110010000
00111100000101010101111011111000
00111101011100011100101110110111
10111100100100111010001010001010
10111101111101010100000011101011
00111011110101000110110101100010
00111110001001100111100110110100
00111101001011011001111010100010
00111101110001110101010101011011
10111101111000101110101100011000
10111100011011001000000111101100
10111110001011010101010111011001
10111101011101100111000111001000
00111101001001010010101010110001
10111101100110101111011010000011
10111101110101000110011011110110
10111101110011010000001001101111
10111110010000010110011100100110
10111101100010011111100011010100
10111101101101110010100101100110
10111101110001110010010101011110
10111110001001001010011100110010
00111101110110001011000000001001
00111100111111011100111011110100
00111110010010010011000000010101
00111101100111110110000100011011
10111110010010101011110100000110
00111101011100000010011111001100
10111101111000011100101000000010
00111101100101011111101100000011
10111101100100101011000010011011
10111011111000010111100000011111
10111101001110101001100110110000
00111110000001001011111110011000
10111110000010101101100101011100
10111110001010011001010001011000
00111100110111000010111101110011
00111101100100011101000101111000
10111101011100000101111101111001
10111110000001011111110100110101
10111100010010100010100010101111
00111101000101101001001111110110
10111101110110001011010001001100
00111101110100000001001110101011
10111101111000111010010110001011
00111101110100010000000110111001
10111100000100001011101011010011
10111110010111010110111010110101
00111101010101100101011011000011
10111110001000100100010100011101
10111101111110110000111101100100
00111011111100111010000010101001
10111101100001101011010100100010
10111101101000101111000001100001
10111110000010010000111000011011
00111100101101110111101110000110
00111101101010001110110001001100
10111110011000110111010000010010
00111110010110001111000111101111
10111100010101000110111111010000
00111011111100101010110111101001
10111101111101011111011100110100
00111101111111010111101101110101
10111100101111101100111101011110
00111100100001010011001101111110
00111101000001000110100001110011
00111101100111001001101101111110
10111110001100101101101011110011
10111101100111000100110111110111
00111101100101011000000011011010
10111110000001000110000110100011
00111101011110011110101100001001
00111100111011111000000100010111
00111101101000011110011101101110
10111101101011110111001111000001
00111101111011101100000011001011
00111101011100010010001000101100
00111101001111011010111101111011
