10111101110100110110110101001001
10111110001101110001111010010100
00111011100010011011111100010011
10111100100011010100000001101001
00111110001000111111101010111100
00111100101010111101000111100101
00111101100100100101001011010010
00111101100110011100010001001000
10111110010000101100010001011000
00111011011111100100000010010000
00111101100111101111111111010100
00111100100001011101000000001101
10111101110011011110000011110110
10111101111101111110100101110000
10111110010001001011100011010001
10111101010000101010000110010111
00111101111001100110100000110110
10111101110001001000010000101110
00111101010110101110111101110000
00111101100010111001101100000110
10111110010001110001100110101101
00111101001000110010001101000101
10111110001101010011110000111000
10111100001011111000101000001111
10111110000101010010010111110000
00111101111111111100000000111001
10111110000111000100110001000000
10111101101010001101111100110100
10111110010000100011100100100010
10111101101011101000011110100010
10111100110110010100000001111011
00111101100011111001000110111000
10111101101000110001101000111100
10111101011100010010001001001110
00111100111010000000100000111011
00111100000111100101111111001001
10111101001001010000010010110010
10111101100111101010100100101000
00111101011101101010111010011011
10111110000001100011001000111000
10111110000100011111010000000110
00111101011111100001100000011100
00111101100100000001010010010111
10111110001011101000101111110100
00111101010001000000101100110100
10111100100010010101001001011110
00111101110010100010101001000100
10111101011001101101010010011011
00111110001011001110101000000101
00111101011011001010101111111111
00111110011010000000011010101111
00111110000010011000001110101010
10111101001111001110001100100101
10111010111111111010100010101101
10111110001100001011110000111111
10111110000111110111011011100111
00111101000100101101010101111110
00111101101001011010110100000000
10111101111001011010100010101001
10111110001011010110010101000010
10111110000101010111001010001001
10111110001001010101011011001001
00111100010111011010101111000011
00111101011111101010101010100000
00111110010011100101110001011000
00111101011011000100101001000100
00111101100100000010001010000011
10111101100101001101001000000010
10111101010100001011111111000000
10111101100101010011111010111010
10111101111111110001001011101000
10111101101100010101101011111000
10111101110110011010101011010001
00111110000101111111000000100111
00111101001101011010111111111001
00111101100111010001001000011001
10111101101111110110010001011100
10111101110110111101010001011001
10111110000100110010010110110010
00111110000010001110101110101100
10111101010001100011011100011101
10111101101000111001001110100011
10111110000000000001010100101100
10111101111000010001101100101001
10111110000101001100100011010011
00111100111000011001111110101001
10111101010010100100110100110100
10111101111010001000011101111101
10111100101111001011100010001110
10111110000001101010101111100110
10111110010011000111110110100000
10111101100100110011010100001111
10111110010011110001010011100111
10111110000010111101000001111111
10111110000110101101110100100011
10111101011011101001001101001000
10111101101000000110100010101100
10111101110010101010110101110100
10111110000000111010001101111100
10111100110100111010101011000101
10111100010100010000011011011010
00111110010110010110110000101110
10111101000000001110100101100011
10111101001101110111011111110111
00111101101100101001100101100001
10111101010000011110010001011011
00111110000100000011101010010000
10111110011001011000000001010111
10111110001001110110010001101000
00111110000101101011011101100011
00111100100101110011101101100111
10111100000111011100111011000010
00111101000110001000000110111101
00111101100011000001001010001000
10111110001110001001100000011101
10111110011110000001111101110011
10111100001001111110011001010110
00111101100110111000101100010101
00111101110011100110101001100001
10111101101000010001100111001000
