00111101100110010110100110100001
10111011110110111110110000111010
10111101100101110000111001100010
10111110001000001010000100011010
00111110001100111100110001000000
00111110000110100010001111101010
10111101110001010111111100110111
00111110011001111010010101100000
10111101111010000001011000000100
00111011100111100001100101010110
00111101101110011101010001011000
00111110010000111001001111100100
00111110000111011110000001100110
10111110000000101111001011001101
10111101101010011000000011010110
00111100000101110110111010100000
00111110000101000101010101110010
00111101001010011011011100110000
10111101111111000100111101001000
10111101111010001101101100100011
10111101100110110110000010010000
00111101001101000000111000001001
00111110000110110011111011001011
10111101100000011110001001110110
10111101111001010100111110101000
10111100101100010100011100111001
10111101111010010100110000001001
10111110000111011101101110110101
10111110000110001010111011010111
10111101100111010101111000101101
10111101000001010111111001111101
00111011110001100011111110010111
00111101011011011101000101111011
10111101110111100000100100001011
10111101000101011111110001000001
10111101100001100010110001011111
00111101001000111110100101100011
10111101100111000111010101101110
10111101100100110111101001100110
00111011101110110010010110101101
10111100101110000001110111111111
00111110000100000101010000101111
00111100000111101001101000000101
10111101100001000000111001001111
00111100110100110101001000111001
00111110001001101000101011010110
10111110001101111000111000011000
10111101000010100111110010000000
10111101110101011011101101011100
00111101101001110100110111110000
10111101110110100000000111101001
10111101101110110010101110110100
00111101100011110111001100010010
10111101110111100000010100000101
00111110000100011101000000100011
00111101001001101011111101111101
10111101011010100010100001010010
00111101001100100110110010110001
10111101000000101100101000101100
10111100101001100001000011000101
00111100011110101010110111101111
00111110000100100000000111101011
00111101011010110111111100001001
10111110010100111001000010111100
10111101111011001110000010111101
00111101101000000000011101110100
10111110000011101000110101010100
10111101101110110111010010110001
10111100101011101010100101101011
10111011101000010001011111111111
00111101100111000110111110101101
00111101100001110010101101001001
10111110000100101111000100000111
10111101101000111010011101111011
00111101100011101011010100010010
00111101001111111101101110000100
10111110000111001111111011111001
00111101110010101010000100111000
10111110001001001101110100101010
00111110000001111111100100111011
00111101100100101111001000010001
00111101011010110110011101000000
00111101110000001100001100000001
10111101111110100011110001011110
00111101010111010000000010110001
00111101001001100110011000001110
10111101101100100101011100001110
00111110000100110110011001001100
10111101011001111001100010000100
00111101111100011110110000100010
00111110000010110100101011011010
10111100001111110100000101100111
00111101001101100100001001100000
10111100011101000000100011100110
10111101100010100001000110101101
10111110001101111010110110010101
10111110000010101100110000111011
10111101011101110010111010010000
00111110000001101010010000101010
10111101101000010100110100001010
00111101000010111110000101001011
00111101101000010111010010010110
00111101011110000101111010001111
10111101111111000110111001100100
00111101111011111110100111111111
00111101010000001000011101101101
00111100101101111011100100010110
10111101011111111101101110100010
00111101110100010110000111111101
10111100100010101010101001001101
10111011111100110010100010011010
00111011011111001001000010111001
00111101110100110000101101110011
10111100100100100111001100101110
00111100001100100001011100001111
10111101010100010000001011001110
00111100011101011100001001001110
10111011111100111001011000010000
00111011110110000000101100110000
10111110010110010111111100100010
