10111101011010111100001010010110
10111101111101110001100110001111
10111101101100111101001101011110
10111101110110100101011010100000
10111110000111001100111000111010
10111101000001110100001110001111
00111101100111011110010110100001
00111100011001110000010110000001
00111101100001011111101111000001
10111101011010011110000000000111
00111101101011111001001010110010
00111101110000111110000011010011
10111101001100010101101011011010
00111100100000011110001000000010
10111101010101101100010000011101
10111101101100111001000100011011
10111100111110011010010100101100
00111101011100011000100010101100
10111110000001010101101110100010
00111110000101000100000111100010
10111110001000000110010010011010
00111101100001000010111001000110
00111101001010001000100100101010
10111101010010011110000010100111
10111110010000100110110100001100
00111101011100001101001101101111
10111110000100111101000010000111
10111101100111001000111011110100
10111101101110111010000000000010
00111101110100000100011101011001
10111011110011101000111110011111
10111100100100001011010100110000
10111010001000011111011101100111
00111101011010000001010010001000
00111101100011100111100110100101
00111101101000101011110011010001
10111101101101001001101011000010
10111110001111111100110010010101
10111101010000010101000011111001
00111101111001010010000100100000
00111101100110011010111100111110
10111110000001011100011110100110
00111101101011101010010000100001
10111101101001111101001111110010
00111101110001001011010010010011
10111101110001101110111111100100
10111101110001010100001010010101
00111010100101111000001011000011
00111011100011001111110101101011
00111101000011001100010110011001
00111011011011010001000011100001
10111100100100000001001001110011
10111101101101001001101100110111
10111101101101011000011111100111
00111101000110111000100101001011
10111110001010101110101001000010
00111101111010111100010101101101
00111101101110001111011011000011
00111110001000101110110010101100
10111110011000001010000111001100
00111101000001000110111100110100
10111110001111001110000110110111
00111101100100000101000001010001
10111110000110010111100011010001
00111110000001101101000010110011
00111100111011111100101101001110
10111110000011101100101001110100
10111101100100101100011001000000
10111110010111100011100100011110
00111101100110101010010011101111
10111101011100100111001111110010
10111110000011110001000000010011
00111100100001010001100111110110
10111011101000000000011000010001
00111101110101110001010010100011
00111101000010100100001100000010
10111101111001101001011100101011
10111110000011001000000000101000
10111101011000000111010000011000
10111101101110100011100100110100
10111101101111111000001110111101
10111110000011000111110000100100
10111101000010010001101010001101
00111110000100101110111100110000
00111101111111011000001010011110
10111110000010101001011011000100
10111110000110100010010101010010
00111110000001010011010101100000
00111101011101111000110101011100
00111101100011011100111101100001
00111101011111011111101010001000
10111011101110010101110101000100
00111100100110110110010111011000
00111101100000110111000010100111
10111101111100111001000000010101
10111101101101001001111110001101
10111101111101001011100101011001
00111100000111111110101000000110
10111100100100101100000001101101
00111101110101110011001011101101
10111110010011011001100000001000
10111110000101010101111100110010
10111101101100011100101101111010
10111101110010001100001101110010
00111100110110111011000001101111
10111110000110001001010011011111
10111101110011101011110111011001
10111110000000011010110101101110
10111110010111000011101010111011
10111101100001100011111011111101
00111101100100011010000011110101
10111101100010010110010110101010
00111100110101110011001010101001
10111110010010100010101001110011
10111101100001110110111010101001
00111110000010101101011000010000
00111101100001011011101000001000
10111101101100000110000111101111
00111101010000101000000110110011
10111110000110111000010110010101
