00111101100101101110101100001101
00111101011000111100110110101011
10111101011111011011011110010010
10111110000101001110011010110010
10111110000100101110101011001111
10111110000001010111010101011101
10111110100001000010010010110111
00111110000010100110010100010100
10111101011001110100011010000111
10111110100011101001111110000101
10111101110010100110111110100010
00111101010010000001011101010011
10111110000110000000100000001010
10111101100010001110011010011111
00111110011010001011100100100110
10111101110010111100110001001011
10111101010110111000001000101001
10111110011111100110111011011110
10111110010001110001010101101110
10111100110001001010001001101001
10111101000101110101000110000010
10111101010010010011100100000100
10111101000111101000100110000101
00111101001011111101011111110111
10111110010010100001101001000001
00111110010001001110011011011111
10111110000001000001101011100010
10111100110110000111000001000110
00111110000101111111100110000110
10111011001111110111001001011100
10111110001110011110111001101000
10111110000001011111110000110100
00111101110100111100110000010100
00111110011011100110111000111100
10111101100011000000101001100111
10111110000000000011110100010010
00111101011101000110001001001100
10111110001011100100001110101001
10111110001111101001101110011100
10111101111100010100101000101111
10111101110110101100000010100001
10111101000101110101001100011100
10111110001100001110001110001100
10111101101101011010010110010100
00111110001100001100111000010001
00111101000011001011101101111011
10111101111010100011001100100100
00111110000010100001001100011110
00111101010100001010101100001110
00111100110010001100011011110101
00111101101101111011011001110000
00111110001000110111010001001110
10111110000001000010111110010010
10111101101000101000110000101000
10111101001110110101101100100111
00111101110000110111110011011001
10111100110000011000101001101100
00111010111101001010010101011110
00111101111101010011001100010011
10111101111001111011000010101001
10111110000000110001111001100000
10111101111100101000000100111010
00111101001001111101110100011110
00111110010101000111101101000011
10111101110111101101010101000101
00111101100010111000101000010000
10111101010100010101100100001100
10111101000000110110111001001010
10111101111000010110111011110001
10111101001011000000100011100001
10111101000110001100010101100010
00111100011000101111100100100010
10111110010111011010010100011011
10111110010110110000111110001001
00111101101011010111001101000000
00111101000001100100101100011001
10111101100110010010011101001001
10111100011000110100110101011100
10111101010011101011110011000011
00111010101100011110111111011011
00111101110011011100110000100111
10111110000111001110010101001110
00111110010000110101010000111010
00111110010010010010111001110100
00111100001101111110100111100011
10111101000110111111011110101101
00111110010000011100011011110010
10111101101010111000010111100011
00111101110111111000011100011010
10111101110001011111111101011100
10111110000001011010011010111110
10111101001110011011101110100011
00111101100011000001010111111101
00111110001101011101100011011111
10111101010111000100001110011001
00111101111110011001111000011110
10111101011101101100010010011010
10111101100011111000010100010100
00111101100001101100111110111100
00111011110100011100011111010001
00111101101111000011010100000111
10111011001000101011111011011100
10111110001100101001100111110011
00111110000101010110111100000111
00111101100000011000000000010001
00111110010100000001000100100010
00111100111010100111000000010000
10111110000011010111111001000000
00111101100001111010110101011001
10111101110100010011101100101001
00111101101000010100000101101001
10111101100111101000000110011101
00111101011110001111000110111000
10111110010001101011101000011101
10111100101000000011001110110001
10111101001011110100111001011000
10111101000001001110000001010101
10111100101010100101010001001000
00111101000110000010011000010001
10111110011001100101000000010111
