10111101011101111110110101001100
10111101111011000000010011111001
10111101110000101010001011000001
00111011111110000111111101111011
10111100111110010111000100000010
10111110010001110100010100001101
10111100100001010001111000010011
10111101000001111001010101100100
10111101011111101000101011000010
00111011010110100100100010100101
00111101111011011011100000110110
00111101110010101001001100011000
00111101101010000001100110001000
10111110000100000111010001111100
10111101000000001000111100011011
10111110000101111010100111011100
10111110010000000111100010100111
00111101110011011000000101001010
10111101011011000000000010111100
10111101111010010111000110011110
10111101100110011100100110011010
00111101110110010011000100111101
10111101000111001010110000010001
10111110100011101010010100110010
10111101110010010111110000111100
00111101001100001100101010001100
10111110011010101001100001110010
10111110010110011001101111100110
10111101001000000001101000001101
10111100000110000101001011100110
00111110000100011011000001111110
10111101101100111010010101110110
10111101000111011000100001111001
00111101001100000110110001011000
00111101000100000000001011111001
00111101111101001100110111001101
00111101100110111101101100011111
10111101110111100111000101010101
10111101001011010110100010111000
00111100101111101111001101011011
10111101110100001001011011011001
00111110010111000000001101001000
10111100010001101110111111000111
10111101001011000110100010110101
10111100010100000100101101010110
10111110000011110011001011100110
00111110010011111100110111101101
00111110000001001001000011010000
00111110001000101000111000101010
10111110010101100010010001110111
00111101100000000011101010000101
10111110000010001011000011001010
00111101011100110101000001101011
00111101100101111010101111001001
10111101100100001101010110110110
00111110000111100110010111110011
00111110000001010100101011111000
00111100001000010010111010101111
00111110000010111000010011000001
10111011101110010000111010000111
00111101000111110001001100110001
10111101100001100101001010100111
00111101010000010010001011100101
10111100001000001000111011011001
10111101110100110100111110011010
10111101011010111100000001000011
10111101110001111111011100100110
10111101101111011001010000010111
10111100101000110001010010100001
10111101100000011001100101000000
10111101100011101111001111100010
00111100011010111111100100000111
00111101011001100100110001011001
00111101001101011101110000110100
10111110011011010001010100101011
10111110001000000011111000111010
10111100100110101100011100101000
00111100001111111110101110110011
10111101110110001110101011101101
10111101110001000000010001101010
00111101110001110100000101110100
10111110001001110000111110101001
10111011100010010011000000010110
10111110000001000011110010001100
00111100110110111101010111010100
10111101010011010110001001001000
00111101011011101110100011100111
10111101100011111010001101000101
00111101110011000000000000111111
10111101011001101110101001010011
10111110000101010010101000110111
10111110101000000100101100011100
10111101110110001110011001001100
00111110000010101110110111101111
10111110001111000010111010101001
10111100101011101010010001000110
10111101100111101010011010010111
10111110000110101010111110110110
10111110011011011111001111101010
10111110001000100010100010101101
00111100110000111010010010110010
10111101111011111101111010110001
10111110001110111101110110111100
10111110001011110011011101000100
10111011100111000000001111011000
10111101100101010100110000011101
00111101001001110101110100101110
10111100011101111101100101100111
10111110100000010110100001011111
00111011110001011000011001101100
10111100100010000100001100011101
10111110000010100100111010000001
00111110000101100101000010101100
10111101000101010011101110000100
10111110100101010100101110100100
10111110001010010000100100101010
00111101100000101001100010111111
10111110001011100001100110111011
00111101111010100111101000010101
00111101111100110111111111110100
