00111110000001110000100010000010
10111100110100001111010010101110
10111110000010101110110010101111
10111110000001100111111111110000
10111101000111100001101011001000
10111110000001000100011011010001
00111101101100100010001110101011
00111101100001110111011101011000
10111101101100010110110001010110
10111101000111110011111100100101
00111110000010101000111000010100
00111101001001100110011101101111
00111110001010100110111100110011
00111110010110101000000111011000
00111100100100001010010110100001
10111101110100101111110011011100
10111101110101011110000001100110
10111101101110100001111011101000
00111110001010001001001001001100
00111101001011100110001010100110
00111100100111101101110101000110
10111110001001010010000111100111
10111101111111000010011010111101
00111101000101011010010010100110
00111110000000111101000011010100
10111110010000110100001111110110
10111100111011000010001011110010
00111100111110100101011011110100
00111101101111100100111010001111
00111110000011100000101000100100
10111101111000101111011000100001
00111110000111111010010001011001
10111110010001001111000000100011
00111101110111101011110011101101
10111101111100001001000111110100
10111011101101000111011100001111
10111110000000111001101011001010
10111101110110101000011101010110
10111110000101100111100001011001
00111110000001111001011110110000
00111101110000100010101101000101
00111110000000100010000111010101
10111101010111100010011011101101
10111110011100010101110111010000
00111101010011111010001110011100
00111101110110011100011001010001
10111101000010010101101101010111
00111101110101111011100111000100
10111110010110111101000001001100
10111100010101101111111111111001
10111100111110100000100110100001
00111110000011010000110000011110
10111101100000011011000001011110
10111110011000101000110000010000
00111100110001101000001001010001
00111101111001010110000010100010
00111101111111000000011100110100
10111101110111001111011001101001
10111110000010000001011110111010
10111110001001110110001100011000
10111110001000010001011000111010
00111101110001111011111011000110
00111101110010010010001111010100
00111101011111001100001100010110
00111101100100001000011001110000
10111110001011111101111000111011
10111101110000110001111110010010
10111101000000011100000101010110
10111101100111101001000110001111
00111110000100010110100001001011
10111011101110010010111101000100
00111101000110101110011110111101
00111110001000101100001101001100
00111101001011001010001000110110
00111101100000111111111110011111
00111100001000101101001001110101
10111011100110010010011100000011
00111110000101110111010111111101
10111100101110010001011011100001
00111101101110010101000001010101
10111101111101101011111011011010
10111011111011011010111110000101
00111100111011101011110101110100
10111100011110000110111011101011
10111100110111011000110011010111
00111110010101101100111100111010
00111101100111110101011100101110
00111101001100111110001101000100
10111100110111010010110110001110
00111110010011110111000110100010
10111101100001001011000101000111
00111101110100001101111011010110
10111101001010001110011111010001
10111110001100000111110111100011
00111101000010110000100000110011
10111110000001111011111101000100
00111011101101100011110000011101
10111101101110111001000100010111
00111101011101101111011001000011
00111011101100100110110011110000
10111110000000111001011011100111
10111110001001010101011001010010
00111100110010111011100010011101
00111110000100000010110011010100
00111110001001111110111100010100
00111100111010011010100010100001
10111101101000111100100011100000
10111101101001010010010111111111
00111101101111011110111001100001
00111100011100101111010011101111
00111101010100110010100110111010
00111110000001110101110100111111
10111110001011101100111110001101
00111011111010111110001010001110
10111110100011011110101010010001
10111110000101100110010101110100
10111101100010101110101100000101
10111101001110011110111001011100
00111110010101111010101001001100
10111101110000110101000111111111
