00111101000001011111111100101111
10111100100110101110111000001001
00111110001011000100010011100100
10111101011111010100111101111001
10111110011001100101010001110000
10111101000011111111100111001010
10111110010000100100010110010111
00111110001101111100110111110010
00111100101010100001011101001100
00111100101100001100010100111011
10111101100111110101001001001011
00111101011101000000011000100111
10111110000010100110000110101001
00111110000011011111110010100011
00111101111101111010011011001001
00111100110100001000100011111101
00111101001101010001110001000010
10111101001111010111110100101001
10111100101101000010011000001100
10111110100001000001011101000100
00111110000000000011001110101011
10111101001001011001110100000001
10111101100010111111101110010110
10111101001110100000011001101010
00111101100111100011100100110010
00111110000110101111011000011111
10111101001001100111000100100110
10111100111101001111011000110010
10111101001101001000001011001110
00111101001101001100100011111110
10111101010010000100010100110100
00111100001000100011100011101011
10111101100000011000010001101110
00111110000011110000101000101110
10111100001110011010010111110011
00111110001101100101100010010111
10111101100101110001011111110001
10111101011010101110110101001110
10111101101011001110100101101000
10111101100001000111101000011100
10111101110001011111100011111100
10111101110101100000000001011101
10111101111101100110100100000000
00111110000001101000100110011110
10111100011101011101101111001000
10111101001010111001111000000110
00111110010101111011010010101011
00111100101101011111111100001101
10111101101001001010111000001001
10111101100100011011010001111010
00111101101000101111010001010100
00111110010000110011010100111010
10111110011001111110001001110111
00111101111001001011111011100111
00111010110111111010110101000000
10111110100010001000101010101001
00111100110110110010100000001010
10111110001010111010000111000110
10111110100011101101010101011011
10111110001001011110110010111011
10111101000111100010011101100000
10111101111100010100001001000000
00111101000110111011101011100010
10111101110111001000101100000001
00111101011110111011001110111110
10111101010100001011011100000100
10111101011010110010100101011101
10111110010001010011101001010100
10111101111101110100000011010110
10111101100101010001101100110010
00111101001010011001010110010101
10111110000001010101010101011000
00111110000010101010100011111000
00111110000000010000101100001001
00111101100100001100101110011011
10111100000010001010110001011100
00111101000101011110011001110001
00111100101110001010010001111100
00111100100000010011100011011010
10111101101011100011101100110110
10111110001010101101100100111000
00111110000010110001010011110000
00111101000011110101001010111111
10111101010111101110000111011111
00111101111001110100011100010010
10111101001100011110100010001110
00111101111010010011100101100000
10111101111011111011111100000101
10111101100111110100110011100011
10111101000000100100000001100110
00111100100101111010111100011001
10111101100001001101100011011101
10111110010001111110111101010011
00111100011111111010101110100110
10111101001100000011111111110001
10111101101111001010000000100110
00111101111110111000010100100011
10111100001101011101010101010100
00111101111101101110110000110101
00111101111110001011110001101101
00111110000100011011110100001110
10111100100100111111000000100010
00111101100100100100110100001001
10111110000100110100110011010000
00111110010001010101000100000011
10111110000111110000111010111001
10111101100110011100101101110110
00111100111011011000001110100011
00111101110101110111010010010100
00111101000100010101001001101101
10111101011111111011111110000001
00111110000101101100001111100111
00111110010101111000000011001010
10111101100101100100000101000101
10111110010100001001110110010011
00111110010111101001000100110001
10111110000000110010001110100010
10111101100110100110000101010100
10111101000101110100010100111110
10111101000100111011110000100110
