10111101101010010110100111101110
10111101100010110001111111111001
10111101101011101000000010000101
10111101111001010101010010001111
10111101101111011011101111000000
10111110000101110101011100010111
00111101001111110110001110010000
00111101100111001111011011001010
10111101110010000101001100100100
00111101110100100100001101111100
10111110010100011001111011010000
10111101000010101101100111100011
10111110000000001111010000100001
00111110000111011100001100010000
10111110000000101110111101000101
00111100110001000011001101011101
10111101101011100111110011000110
00111101101011100011101000101011
10111110011001010101000001000011
10111110010000111010100001010010
10111110000000010110111001011000
00111110010000011111101101111111
00111101011100001001110010001001
10111101111010001000010001010001
00111100010010111000111000101101
00111110000010110010010100011001
10111101111011111110111111001110
10111001011001011100001010000110
10111101111100111010111010010110
10111101101010110010111101000011
10111110000010000110110001111101
10111011111100111100101001011111
10111101100000100000001011100110
00111101111101110000000110011100
10111110001010000101100100010010
10111101100100001110010111111110
00111110001101011011001100100101
10111101001100111001010101111110
00111101100100100001110111110010
10111110000001110101111111100000
10111101100001000100101110111011
00111101101010110011011101000000
00111101111110001011110101000110
00111110000001001110110000100000
00111101101011000010010011011001
00111100011100111100111110101110
10111101100111011111110001000110
10111110000000110101011100101111
10111100011101011000110100010110
10111110000011000111110011001001
10111101111010010101011011111010
00111100101110110000110100101001
10111101111100111000010001000010
00111100101100101011010111100111
00111101110101101010000001101011
00111011001001101000011110110100
10111110000010001000010100110110
10111101000000000101001111110011
10111011111000000011101100110111
00111101011101001001111000111001
10111101001101001111001001011111
00111101111000101011111101010101
10111101101001001100110011100101
10111100100001111001100010100101
00111110000101001001011010000101
00111101101100011100000011000111
10111110001100010101011001011110
00111101000001110110110011110111
10111101101110010001010000011011
10111101111100011101100001100000
00111101101110111111001110010000
00111110000101011000101001110011
10111101100010001011000011111000
00111101101100011001011000011010
10111110000111101101011110011011
10111110010111110000101101001101
00111101001101111111100110001100
10111110000111100001110001001101
00111101010111111110011011110001
10111100010000111011100110101101
10111101110001001111100011101000
10111101001110100011000010011010
00111110010011010101110000010110
00111110000000011010011110011001
10111101100101110100111000100011
10111110001101111111101011010000
10111101111001110100101111110001
00111100110111000000110011001001
10111101010001010011010000111011
10111110000110011011000101111100
00111100110011110011101010111011
10111110000100000000101110011001
10111101101100001111001011101000
00111011101000011111101000010011
10111100110010110101110000111010
10111110001100101110101000110111
00111100000111010000101110011010
00111101101100101010110100000001
00111101111111010010000000111010
10111100110010010010111101000000
00111100001100111010111011001101
00111100101000111100100111100110
10111101100100100110101110100010
00111101101100110110101010100111
10111110000000111110001011101000
10111101101001111011110100110000
10111110001101010111010000010000
00111101100111111010110101101111
10111110001110001010000000111001
10111101110100100111100101111111
10111101111101000011100011011000
00111100110001100011010010110011
00111101101000111110010101100111
00111101101010000110001000100010
10111110010101010001100100110111
10111010111101110110101000111111
10111101100101010010101101111111
10111110010010110111010001111000
00111101100011010000110100111110
00111100100011000111110101110011
