10111110010000101001110010111010
10111110000010001110001101100111
10111101101101110000101110011111
00111101111101101111011000101101
10111101010100110111110111100001
10111101000001110100101101101101
10111101111000110010110100001001
10111101100000001010011010100110
10111101011100111101100010000111
00111101100110110100101100001001
10111101110001011101011111000101
10111101111110101011100110100100
00111101100100110001011101111100
10111101001010111110100110100100
00111101100101011111001001011101
10111110010100100011001101110001
00111100100000110100111110011111
10111101101010110001001000101001
00111110000000000100101101011110
10111110001010100101101010110111
00111101111010110010111101100000
00111100101001010100010001011011
10111101001101011100100111101110
10111101011111011000000011100111
00111101111001000101001111110000
00111100000010010000111011111110
10111101111000000111101100100000
00111101000101000010111010011101
10111110010011010010000001001001
00111101111111011000110001110111
00111110001011110010011001000110
00111100110010100000111011110101
10111110000001111100001001000111
10111100101010011010001100011101
10111110011000101101101000100110
00111101000100111111110000010001
10111110001010001111101111000010
00111110000011111011001101011101
00111100000000110000001011000101
10111100010010001001011001010101
10111101100001110011010000100100
00111110001101110111000000000001
10111101100011001110000011011011
10111011100100001010000000101001
10111110000011100000001000110111
10111110010101110001101111101011
00111101011010111001100111000010
00111110001111010111001000110001
10111101100111101100000111011000
00111110011110011011010101110110
10111101100101111011011011111110
10111100100100001001101111011100
10111110100110100000111110000111
00111110011110001001100111001000
10111110000100011000101000011010
10111110000001110101111001001011
00111110001011000011000010101100
10111101101101001101111001001111
00111100100101011101011000010000
10111110011001101000100000011110
10111101001011101101001001010100
00111010111100101111010011010010
00111100110011101001011001100101
10111100010011011100101110010101
10111110000001000001101111010100
00111101000001111101101010110010
00111101110000001110110101101101
00111110000100101010100100111100
10111101011100110100011001010101
10111110010100011000011011001001
00111110100000100011000110001001
10111011001001001010000110111111
00111100001111101010100010001011
10111100001010010011010001000001
00111101101010001011001010011011
10111101010111000101111110111100
10111101101000110001001101000000
00111101100001011110101101010011
00111101100101111101000011011110
00111101111010000001001011001000
10111100101101110011001110100110
00111100110111011010011100010111
00111110001101110111010101011111
10111101101111010001110101000110
00111100110011000000100110101100
00111100101000000001100001100110
10111101101000100110000010010001
00111101100011101000100100100000
10111100110110100000100001011011
00111100111110101101011011011000
00111100000101110111000011111010
00111101111000111110111111011110
10111110000101010000111010001011
10111100111111000101001010111000
10111110010111000001100101011111
10111101101100010001011000011011
10111100100110000111001110011001
00111101101101011010111010110100
10111110010111001110111001111100
10111101000100010101110000101010
10111100010010110001011111100001
00111110000111101111011111001011
00111101100001100001010000011100
00111101100101001101101101110110
00111101100010011100111000111110
00111110010100000001010110000111
10111110000100001111100001010010
10111101101110111110111101010101
10111110011101101101111000011111
10111101000100001100011100001100
10111101000010111010101010111101
00111110000011100101101110111000
00111110001001011100011011111000
00111100110000101101001101001100
10111110010111101100101111111101
10111100011101011010001010010011
10111101101101010111010100001111
10111101011000110100101001001111
00111101101011100011000111001011
00111101100100101110010111011101
