10111101100010010100101000001111
10111101101000000111000001010001
10111110010011010010101101110110
10111101111000000111100001110011
10111101001001100100010011000010
00111110001000001011011010011110
10111110000101110111101110000001
00111101000111111101100100011101
10111101011011000001000001111010
00111101001000111101101000110010
00111101100011000101100010100110
00111101110001000010010000110101
00111100110000110010100101010000
00111110011011111011101111001111
10111101101111011110110101110111
00111101110111011110111100011000
10111101111010101100101010110101
10111101000001001111100110000010
10111110011101111010110010000100
00111101011110000000010111100010
00111110000111001010001101100111
00111101100000000001100000010110
10111101010000000000010001100010
00111101110100011000111101110001
10111101111000010100111001100011
00111101111110101111010011001110
10111110001100001010011111001000
00111100011111111111001111000110
10111101100111000000101011100000
10111011110110011011010100000101
10111101111001001001111110000110
00111101110010010101001001100110
00111110000000001101100100101000
00111100110101001100101100101001
10111101001000010011001100100110
10111100010000100011001001111101
00111101100111001011110000110011
10111100011111000101100001011111
10111110010110011011001100000011
00111100001100100001000010011011
10111110010111100101000110101101
00111101110010001101000101011101
00111101101111001001110100010111
00111011111011010001111111111111
10111101110011100110111110100011
00111110000110000110000000011110
00111101110001100010111001000011
00111101010000001100111111011001
10111101111010111110101000100000
10111110011101111111011110010000
10111110000101010001110001100011
10111101110110000010101011010110
10111100001001010110100100111001
10111110100000010111110001010010
10111101000000110001010010011000
10111110001111010011000110010000
10111101010110101111101111110111
00111010110001000110000101000011
00111101111000110000001111001010
00111101101101000110001111001010
10111101010100010111011000011011
10111100101101110101001011011000
10111101100001000111011011011111
10111110001001101011101100001110
10111110010110101100011010100111
00111110000001011010101100001110
00111010100100111000111000000100
10111101111010011001110011101111
00111101110100001011110001110101
10111101111001001011001000101111
00111101101110000101000011100001
10111110001110000011011110110111
10111101001101011110001001011100
00111101010010010110001111110010
00111110000101011101111111110101
00111101110011100000101001100011
00111110010110010101110001110001
00111101110110101001010110011000
00111101000101101100011110010110
10111101111001111111011000000001
10111101101011111101000001100110
10111110010000110000111110001011
10111110000001010000001000110011
10111110001110011101101000001000
10111110011100100000000111100101
10111101111011010010110001111111
00111101110101111001101111101001
10111101110000001110110110001010
10111101111100011111011111111000
10111101011000010101000101100000
00111101100010101100100111000110
10111101100111000100010111000011
00111110000110111110110000000001
10111101100011101000111000101101
10111101100011000110101101010100
10111110000100111100101011111110
00111101101101010111011101100000
10111101101100000010111100010000
10111110001111100001011110001001
10111101101111001100010011010110
10111110001000010111010000101010
10111011010100011111011011111010
00111110000100000111100111011110
00111101101001101000101000000101
00111100100010100000101101110011
00111100010011101001001101111101
00111101010010001001000011101111
10111110001101001101111001101111
00111101011101101010100011011010
00111101111111101110111101011100
10111101111100110110010101111001
10111101110010010010010111101110
10111101100100100011000111100110
10111101110101111010110111011000
10111100101001110000010011001000
10111101101111000011100101110111
10111101100101101001110010111111
00111110001100001110011001001111
10111100101000111100110111011110
10111110001101110100000001111010
